<pad>	0
<unk>	0
<s>	0
</s>	0
<Node>	0
NodeInsert	0
NodeDelete	0
NodeNone	0
NodeMove	0
NodeUpdate	0
<old_cmt_st>	0
<old_cmt_ed>	0
<code_edit_st>	0
<code_edit_ed>	0
<before>	0
<after>	0
<c_insert>	0
<c_delete>	0
<c_replace>	0
<c_keep>	0
<n_insert>	0
<n_delete>	0
<n_replace>	0
<n_keep>	0
re	-0
in	-1
er	-2
on	-3
st	-4
at	-5
▁t	-6
et	-7
en	-8
);	-9
al	-10
▁{	-11
ion	-12
or	-13
▁c	-14
le	-15
▁th	-16
▁}	-17
▁re	-18
▁p	-19
an	-20
ic	-21
ur	-22
▁i	-23
▁=	-24
▁n	-25
de	-26
ar	-27
se	-28
▁f	-29
ing	-30
te	-31
ce	-32
ro	-33
get	-34
▁s	-35
()	-36
me	-37
tion	-38
ent	-39
▁a	-40
ul	-41
▁(	-42
ue	-43
ss	-44
▁the	-45
it	-46
▁ret	-47
urn	-48
ec	-49
▁return	-50
str	-51
▁b	-52
lo	-53
▁in	-54
ub	-55
id	-56
ex	-57
ate	-58
ut	-59
▁m	-60
ch	-61
lic	-62
is	-63
▁o	-64
▁if	-65
ew	-66
ad	-67
fi	-68
string	-69
li	-70
▁v	-71
un	-72
▁pub	-73
co	-74
▁public	-75
la	-76
ame	-77
con	-78
ap	-79
ri	-80
ac	-81
▁w	-82
il	-83
ull	-84
ed	-85
▁d	-86
();	-87
ag	-88
▁new	-89
ption	-90
ation	-91
el	-92
mp	-93
yp	-94
res	-95
▁null	-96
que	-97
and	-98
▁to	-99
▁st	-100
ter	-101
es	-102
alue	-103
ot	-104
ab	-105
as	-106
▁/	-107
▁"	-108
ception	-109
up	-110
quest	-111
list	-112
th	-113
all	-114
▁this	-115
ke	-116
ver	-117
("	-118
▁//	-119
▁get	-120
ti	-121
▁con	-122
am	-123
▁co	-124
name	-125
ment	-126
▁string	-127
qu	-128
set	-129
▁for	-130
ype	-131
▁ex	-132
ser	-133
tex	-134
per	-135
row	-136
od	-137
ect	-138
ult	-139
bu	-140
inal	-141
▁e	-142
able	-143
▁h	-144
▁+	-145
end	-146
▁of	-147
lass	-148
int	-149
to	-150
um	-151
key	-152
▁res	-153
lin	-154
oid	-155
ren	-156
iz	-157
▁de	-158
der	-159
loc	-160
age	-161
request	-162
▁throw	-163
▁void	-164
▁tr	-165
▁is	-166
▁set	-167
pro	-168
▁g	-169
ode	-170
ject	-171
value	-172
put	-173
text	-174
ith	-175
▁pro	-176
ay	-177
dex	-178
pon	-179
▁{@	-180
our	-181
▁==	-182
met	-183
ve	-184
▁int	-185
▁fi	-186
().	-187
ol	-188
▁final	-189
ponse	-190
ted	-191
bject	-192
link	-193
stan	-194
exception	-195
▁j	-196
po	-197
ase	-198
▁stat	-199
▁!	-200
ig	-201
));	-202
sh	-203
ource	-204
ath	-205
tor	-206
atch	-207
());	-208
tr	-209
type	-210
class	-211
▁be	-212
ction	-213
log	-214
of	-215
ers	-216
▁0	-217
oo	-218
di	-219
▁ch	-220
");	-221
reate	-222
▁@	-223
fig	-224
ata	-225
())	-226
vic	-227
ain	-228
fa	-229
ach	-230
▁r	-231
ack	-232
red	-233
▁static	-234
▁!=	-235
par	-236
▁value	-237
ator	-238
▁and	-239
add	-240
us	-241
map	-242
▁list	-243
len	-244
▁an	-245
for	-246
",	-247
stance	-248
eld	-249
sc	-250
▁se	-251
ty	-252
ize	-253
ity	-254
file	-255
lean	-256
).	-257
ong	-258
ore	-259
oc	-260
▁-	-261
rom	-262
ang	-263
rent	-264
context	-265
not	-266
unt	-267
ff	-268
▁l	-269
hod	-270
ric	-271
oolean	-272
app	-273
lle	-274
ind	-275
read	-276
vent	-277
arr	-278
vice	-279
out	-280
))	-281
ext	-282
ist	-283
let	-284
▁met	-285
art	-286
ort	-287
▁u	-288
▁on	-289
ure	-290
▁with	-291
array	-292
est	-293
ilder	-294
▁<	-295
▁el	-296
▁create	-297
index	-298
pec	-299
▁by	-300
ust	-301
code	-302
▁else	-303
▁wh	-304
em	-305
▁request	-306
(),	-307
iv	-308
arg	-309
ws	-310
cess	-311
ream	-312
▁ad	-313
▁throws	-314
by	-315
cont	-316
iter	-317
▁ass	-318
mess	-319
lement	-320
als	-321
▁:	-322
ord	-323
eck	-324
ifi	-325
ssion	-326
path	-327
▁not	-328
response	-329
mo	-330
gth	-331
lock	-332
time	-333
▁object	-334
ry	-335
length	-336
rec	-337
▁do	-338
▁or	-339
vi	-340
▁par	-341
new	-342
▁.	-343
load	-344
▁file	-345
fo	-346
lient	-347
▁boolean	-348
ly	-349
ime	-350
config	-351
▁name	-352
ht	-353
mar	-354
if	-355
[]	-356
ener	-357
pa	-358
form	-359
scri	-360
▁1	-361
▁try	-362
ger	-363
ule	-364
fault	-365
▁*	-366
▁bu	-367
alse	-368
ow	-369
pre	-370
ler	-371
ax	-372
val	-373
rics	-374
date	-375
▁returns	-376
field	-377
comp	-378
yn	-379
quer	-380
entry	-381
result	-382
ecu	-383
err	-384
tory	-385
roup	-386
▁ser	-387
▁log	-388
ert	-389
av	-390
▁response	-391
▁it	-392
urrent	-393
▁that	-394
ache	-395
amet	-396
size	-397
null	-398
builder	-399
▁instance	-400
ct	-401
si	-402
message	-403
▁result	-404
▁from	-405
ild	-406
stream	-407
ial	-408
tes	-409
tem	-410
▁&	-411
▁cont	-412
▁pri	-413
▁un	-414
im	-415
uration	-416
att	-417
metrics	-418
util	-419
und	-420
▁comp	-421
query	-422
son	-423
ans	-424
om	-425
ip	-426
▁type	-427
error	-428
over	-429
▁class	-430
fe	-431
▁method	-432
▁po	-433
lay	-434
count	-435
be	-436
ken	-437
perty	-438
▁add	-439
yst	-440
requestmetrics	-441
wsrequestmetrics	-442
sion	-443
col	-444
quals	-445
with	-446
shall	-447
node	-448
mm	-449
vate	-450
info	-451
state	-452
▁sh	-453
object	-454
▁we	-455
▁key	-456
ride	-457
hand	-458
iven	-459
final	-460
sed	-461
▁given	-462
inter	-463
lab	-464
dat	-465
▁&&	-466
),	-467
act	-468
▁false	-469
local	-470
ber	-471
ead	-472
▁long	-473
▁test	-474
▁catch	-475
service	-476
ob	-477
this	-478
▁true	-479
ffer	-480
op	-481
override	-482
▁private	-483
client	-484
ill	-485
▁ap	-486
ecution	-487
uble	-488
append	-489
stat	-490
▁map	-491
▁en	-492
attri	-493
ile	-494
ument	-495
wr	-496
ystem	-497
ign	-498
ection	-499
port	-500
data	-501
cl	-502
umn	-503
ask	-504
▁out	-505
action	-506
ange	-507
▁index	-508
▁array	-509
test	-510
ified	-511
▁assert	-512
url	-513
llection	-514
▁check	-515
▁)	-516
group	-517
ork	-518
marshall	-519
▁>	-520
low	-521
ded	-522
▁|	-523
▁default	-524
▁all	-525
▁ac	-526
attribu	-527
entex	-528
update	-529
▁spec	-530
tp	-531
▁0;	-532
ms	-533
mpty	-534
▁as	-535
▁has	-536
resource	-537
anag	-538
actory	-539
▁al	-540
▁pre	-541
▁config	-542
one	-543
ated	-544
rite	-545
handler	-546
▁can	-547
▁id	-548
ir	-549
next	-550
nection	-551
ces	-552
<?	-553
▁?	-554
▁current	-555
arget	-556
ron	-557
pr	-558
gr	-559
user	-560
>>	-561
cur	-562
instance	-563
fset	-564
cache	-565
▁k	-566
store	-567
fin	-568
fil	-569
unction	-570
anager	-571
reg	-572
sub	-573
▁field	-574
ties	-575
}.	-576
▁exception	-577
▁app	-578
feren	-579
ml	-580
▁time	-581
uth	-582
rst	-583
cted	-584
perties	-585
▁data	-586
++	-587
▁node	-588
▁x	-589
ava	-590
ings	-591
ak	-592
start	-593
version	-594
cre	-595
has	-596
▁double	-597
oexception	-598
ameter	-599
min	-600
method	-601
ally	-602
xception	-603
ptions	-604
peration	-605
▁ro	-606
move	-607
teger	-608
▁json	-609
ename	-610
back	-611
ass	-612
▁y	-613
create	-614
pl	-615
ard	-616
ress	-617
▁||	-618
ts	-619
gal	-620
▁dat	-621
contain	-622
▁read	-623
▁path	-624
ync	-625
▁(!	-626
last	-627
entity	-628
▁context	-629
point	-630
from	-631
filter	-632
equals	-633
check	-634
odule	-635
▁input	-636
▁call	-637
factory	-638
▁le	-639
ive	-640
nel	-641
tag	-642
▁are	-643
ies	-644
use	-645
▁user	-646
adata	-647
lob	-648
item	-649
ized	-650
▁end	-651
▁case	-652
ail	-653
sup	-654
▁no	-655
event	-656
ost	-657
mem	-658
▁0)	-659
qui	-660
uld	-661
▁byte	-662
mpl	-663
▁run	-664
▁at	-665
uri	-666
gin	-667
buffer	-668
00	-669
vid	-670
mode	-671
▁will	-672
ound	-673
ecutioncontext	-674
input	-675
py	-676
uc	-677
ory	-678
utils	-679
valid	-680
manager	-681
▁start	-682
etime	-683
entexception	-684
tern	-685
ree	-686
descri	-687
llegal	-688
▁illegal	-689
arch	-690
ast	-691
ference	-692
status	-693
▁resource	-694
long	-695
format	-696
onent	-697
▁specified	-698
line	-699
▁val	-700
work	-701
")	-702
ecut	-703
▁num	-704
mi	-705
▁);	-706
▁'	-707
▁sub	-708
own	-709
head	-710
notation	-711
▁fil	-712
ence	-713
property	-714
dition	-715
writer	-716
amp	-717
token	-718
▁instanceof	-719
▁system	-720
▁per	-721
▁ob	-722
pe	-723
▁sup	-724
column	-725
block	-726
lete	-727
▁com	-728
sition	-729
▁di	-730
loader	-731
▁query	-732
write	-733
ary	-734
>(	-735
content	-736
no	-737
▁fin	-738
her	-739
tected	-740
▁col	-741
pt	-742
ight	-743
ok	-744
▁ioexception	-745
▁reg	-746
ise	-747
▁ext	-748
▁values	-749
▁protected	-750
▁sets	-751
doc	-752
lication	-753
▁local	-754
icate	-755
view	-756
true	-757
ib	-758
vider	-759
▁output	-760
lose	-761
tostring	-762
lable	-763
ends	-764
word	-765
attribute	-766
orted	-767
default	-768
ge	-769
ave	-770
ould	-771
vel	-772
▁use	-773
cond	-774
▁gets	-775
arn	-776
▁element	-777
annel	-778
configuration	-779
serv	-780
ket	-781
pace	-782
fix	-783
▁((	-784
ypes	-785
ify	-786
tif	-787
▁state	-788
uster	-789
▁arg	-790
ication	-791
ute	-792
base	-793
▁ht	-794
az	-795
loat	-796
max	-797
location	-798
bug	-799
mit	-800
pos	-801
▁collection	-802
we	-803
ages	-804
dep	-805
pected	-806
do	-807
isp	-808
▁match	-809
▁trans	-810
element	-811
umentexception	-812
ale	-813
are	-814
var	-815
ner	-816
queue	-817
▁service	-818
];	-819
aw	-820
▁iter	-821
enc	-822
sch	-823
▁->	-824
▁find	-825
▁contain	-826
▁ne	-827
current	-828
▁while	-829
▁update	-830
▁property	-831
▁builder	-832
server	-833
▁cal	-834
rectory	-835
chron	-836
>();	-837
▁message	-838
ual	-839
▁event	-840
▁q	-841
▁max	-842
output	-843
source	-844
ector	-845
pla	-846
(0	-847
getname	-848
mmand	-849
▁illegalarg	-850
label	-851
▁z	-852
offset	-853
match	-854
▁hand	-855
ptor	-856
▁char	-857
itial	-858
connection	-859
aph	-860
ere	-861
run	-862
▁pa	-863
fr	-864
fer	-865
resent	-866
async	-867
▁finally	-868
▁2	-869
++)	-870
pression	-871
ake	-872
properties	-873
fore	-874
▁inter	-875
ifier	-876
print	-877
metadata	-878
ther	-879
ameters	-880
▁us	-881
byte	-882
▁source	-883
auth	-884
listener	-885
abled	-886
▁mar	-887
marshaller	-888
▁target	-889
char	-890
values	-891
▁item	-892
▁first	-893
uct	-894
▁entry	-895
collection	-896
▁valid	-897
db	-898
build	-899
trans	-900
▁base	-901
num	-902
address	-903
ep	-904
▁#	-905
options	-906
▁other	-907
qual	-908
▁so	-909
ateg	-910
mat	-911
operation	-912
notnull	-913
page	-914
rig	-915
ates	-916
session	-917
▁must	-918
1,	-919
ses	-920
▁stream	-921
▁doc	-922
call	-923
ody	-924
os	-925
mb	-926
dir	-927
param	-928
ance	-929
▁should	-930
space	-931
▁group	-932
▁client	-933
▁im	-934
iterator	-935
access	-936
<?>	-937
rol	-938
▁arraylist	-939
function	-940
▁http	-941
older	-942
sele	-943
▁creates	-944
cli	-945
http	-946
ich	-947
parameter	-948
led	-949
uture	-950
▁configuration	-951
reak	-952
ft	-953
gment	-954
..	-955
▁op	-956
process	-957
remove	-958
▁logger	-959
▁any	-960
condition	-961
debug	-962
lu	-963
▁block	-964
▁sc	-965
cla	-966
▁imp	-967
attern	-968
▁wr	-969
ynchron	-970
▁descri	-971
▁tag	-972
sp	-973
▁extends	-974
▁hash	-975
▁gr	-976
ecutor	-977
▁error	-978
▁up	-979
lang	-980
▁sb	-981
vis	-982
ref	-983
▁cl	-984
job	-985
▁content	-986
contains	-987
ant	-988
▁gener	-989
▁filter	-990
etype	-991
▁vi	-992
su	-993
medi	-994
▁when	-995
▁sch	-996
record	-997
ulti	-998
model	-999
ension	-1000
▁have	-1001
▁integer	-1002
ker	-1003
mission	-1004
provider	-1005
bytes	-1006
▁using	-1007
order	-1008
sing	-1009
▁inv	-1010
tequals	-1011
ported	-1012
dexception	-1013
integer	-1014
▁li	-1015
.");	-1016
▁te	-1017
iod	-1018
▁option	-1019
mod	-1020
ld	-1021
host	-1022
▁one	-1023
unit	-1024
task	-1025
resol	-1026
json	-1027
bo	-1028
";	-1029
ved	-1030
▁which	-1031
▁break	-1032
ding	-1033
warn	-1034
▁next	-1035
acti	-1036
▁asser	-1037
ition	-1038
layer	-1039
ret	-1040
istr	-1041
target	-1042
boolean	-1043
▁used	-1044
tition	-1045
▁module	-1046
attributes	-1047
ace	-1048
▁text	-1049
▁java	-1050
place	-1051
▁offset	-1052
econ	-1053
xml	-1054
▁str	-1055
▁size	-1056
▁token	-1057
▁session	-1058
▁count	-1059
reader	-1060
ear	-1061
▁only	-1062
▁thread	-1063
▁connection	-1064
▁vers	-1065
lag	-1066
non	-1067
level	-1068
isempty	-1069
▁exp	-1070
▁version	-1071
...	-1072
▁exist	-1073
ql	-1074
▁order	-1075
lename	-1076
▁process	-1077
annotation	-1078
▁qu	-1079
▁buffer	-1080
star	-1081
▁min	-1082
ema	-1083
▁url	-1084
▁requi	-1085
▁ver	-1086
sum	-1087
intern	-1088
member	-1089
pack	-1090
▁cache	-1091
first	-1092
copy	-1093
curity	-1094
change	-1095
module	-1096
servable	-1097
▁parameter	-1098
idth	-1099
azon	-1100
▁dest	-1101
clu	-1102
les	-1103
ait	-1104
system	-1105
abase	-1106
▁rec	-1107
pri	-1108
▁column	-1109
ertif	-1110
▁synchron	-1111
▁number	-1112
▁float	-1113
hash	-1114
ause	-1115
▁head	-1116
table	-1117
tings	-1118
defin	-1119
▁mode	-1120
close	-1121
orage	-1122
▁regist	-1123
lat	-1124
((	-1125
▁dep	-1126
reat	-1127
ible	-1128
enerator	-1129
▁ab	-1130
utable	-1131
internal	-1132
header	-1133
▁auth	-1134
channel	-1135
▁conver	-1136
iable	-1137
▁job	-1138
▁last	-1139
cap	-1140
▁task	-1141
▁load	-1142
▁lo	-1143
component	-1144
imp	-1145
▁remo	-1146
position	-1147
▁action	-1148
▁function	-1149
ite	-1150
main	-1151
parent	-1152
▁code	-1153
reference	-1154
--	-1155
ification	-1156
ine	-1157
body	-1158
af	-1159
▁over	-1160
formation	-1161
bit	-1162
quence	-1163
ature	-1164
child	-1165
false	-1166
▁rep	-1167
datas	-1168
▁synchronized	-1169
case	-1170
▁cur	-1171
unter	-1172
redent	-1173
▁operation	-1174
▁observable	-1175
way	-1176
rect	-1177
ertificate	-1178
old	-1179
ecute	-1180
izer	-1181
▁constr	-1182
▁-1	-1183
tree	-1184
▁server	-1185
second	-1186
ization	-1187
iled	-1188
ting	-1189
▁work	-1190
datetime	-1191
▁component	-1192
he	-1193
▁date	-1194
▁sele	-1195
cle	-1196
▁but	-1197
▁var	-1198
▁assertequals	-1199
▁properties	-1200
enabled	-1201
mon	-1202
()).	-1203
▁_	-1204
aws	-1205
getvalue	-1206
▁table	-1207
ustom	-1208
▁parent	-1209
conn	-1210
▁into	-1211
▁expected	-1212
blob	-1213
right	-1214
temp	-1215
▁ms	-1216
graph	-1217
▁does	-1218
ish	-1219
▁initial	-1220
thread	-1221
oke	-1222
bean	-1223
▁servic	-1224
tevent	-1225
ous	-1226
cept	-1227
ered	-1228
mapp	-1229
▁bind	-1230
valu	-1231
iss	-1232
▁remove	-1233
"));	-1234
container	-1235
▁fr	-1236
inner	-1237
itor	-1238
()));	-1239
raw	-1240
plit	-1241
lation	-1242
ctor	-1243
(1	-1244
▁param	-1245
stack	-1246
licy	-1247
oin	-1248
▁*/	-1249
descriptor	-1250
root	-1251
arator	-1252
ens	-1253
constr	-1254
)}	-1255
").	-1256
conditions	-1257
ries	-1258
leg	-1259
face	-1260
serviceresponse	-1261
▁link	-1262
option	-1263
va	-1264
"),	-1265
java	-1266
ou	-1267
impl	-1268
args	-1269
▁mon	-1270
▁annotation	-1271
parse	-1272
.0	-1273
▁status	-1274
▁pack	-1275
▁found	-1276
unk	-1277
▁application	-1278
image	-1279
clientex	-1280
aint	-1281
cope	-1282
ilable	-1283
▁cannot	-1284
throw	-1285
rule	-1286
acter	-1287
▁write	-1288
down	-1289
▁det	-1290
rix	-1291
ln	-1292
application	-1293
hcache	-1294
startevent	-1295
▁super	-1296
▁{}	-1297
directory	-1298
ls	-1299
▁image	-1300
[0	-1301
igit	-1302
definition	-1303
ink	-1304
br	-1305
requi	-1306
▁build	-1307
posit	-1308
▁>=	-1309
ready	-1310
indow	-1311
nap	-1312
▁search	-1313
find	-1314
names	-1315
▁});	-1316
▁view	-1317
ical	-1318
any	-1319
▁provi	-1320
marshalltime	-1321
▁uri	-1322
shot	-1323
▁0,	-1324
tocol	-1325
▁mod	-1326
▁iterator	-1327
core	-1328
ids	-1329
▁resol	-1330
bin	-1331
▁/*	-1332
▁+=	-1333
uage	-1334
exp	-1335
▁metadata	-1336
eme	-1337
yle	-1338
cal	-1339
song	-1340
sexception	-1341
▁format	-1342
ade	-1343
ps	-1344
tract	-1345
future	-1346
agment	-1347
▁msg	-1348
▁creat	-1349
▁conn	-1350
▁root	-1351
ves	-1352
▁options	-1353
spec	-1354
stamp	-1355
▁pr	-1356
▁then	-1357
segment	-1358
mplate	-1359
cach	-1360
▁dis	-1361
napshot	-1362
ategy	-1363
▁access	-1364
('	-1365
elper	-1366
▁1;	-1367
command	-1368
ency	-1369
width	-1370
fs	-1371
dis	-1372
andom	-1373
▁empty	-1374
\"	-1375
▁parse	-1376
messages	-1377
entifier	-1378
og	-1379
double	-1380
▁been	-1381
▁length	-1382
sist	-1383
subscri	-1384
rc	-1385
empty	-1386
ide	-1387
▁cla	-1388
apter	-1389
files	-1390
▁argument	-1391
▁command	-1392
▁document	-1393
uto	-1394
▁child	-1395
▁its	-1396
enco	-1397
delete	-1398
isplay	-1399
"))	-1400
▁sw	-1401
fail	-1402
tx	-1403
frame	-1404
▁row	-1405
▁am	-1406
ility	-1407
songenerator	-1408
▁record	-1409
comm	-1410
pic	-1411
▁jsonwriter	-1412
document	-1413
▁quat	-1414
ocket	-1415
etwork	-1416
stant	-1417
▁back	-1418
actor	-1419
uccess	-1420
▁optional	-1421
▁responsehandler	-1422
▁required	-1423
▁ag	-1424
▁copy	-1425
getclass	-1426
ations	-1427
▁mat	-1428
leted	-1429
bind	-1430
▁ter	-1431
ures	-1432
pository	-1433
▁cor	-1434
▁point	-1435
argument	-1436
lease	-1437
search	-1438
2,	-1439
sto	-1440
▁objects	-1441
ph	-1442
parameters	-1443
return	-1444
nul	-1445
flow	-1446
flag	-1447
eto	-1448
pan	-1449
▁was	-1450
println	-1451
prefix	-1452
rup	-1453
icon	-1454
conver	-1455
()))	-1456
dk	-1457
▁store	-1458
▁temp	-1459
▁label	-1460
trace	-1461
pag	-1462
▁bytes	-1463
enum	-1464
types	-1465
ock	-1466
nown	-1467
<>();	-1468
storage	-1469
regist	-1470
▁host	-1471
viron	-1472
▁there	-1473
exist	-1474
▁entity	-1475
press	-1476
srequest	-1477
vironment	-1478
ne	-1479
ume	-1480
▁cluster	-1481
▁kale	-1482
serial	-1483
ook	-1484
ourc	-1485
▁defin	-1486
getkey	-1487
stants	-1488
ample	-1489
].	-1490
abs	-1491
api	-1492
▁db	-1493
▁marshall	-1494
cret	-1495
pli	-1496
sses	-1497
security	-1498
▁implement	-1499
clude	-1500
▁fail	-1501
entries	-1502
open	-1503
other	-1504
part	-1505
undle	-1506
mary	-1507
columnname	-1508
gn	-1509
▁invoke	-1510
inv	-1511
▁files	-1512
getmessage	-1513
params	-1514
io	-1515
▁()	-1516
cluster	-1517
comparator	-1518
supported	-1519
▁each	-1520
mapping	-1521
mal	-1522
statement	-1523
▁stringbuilder	-1524
illis	-1525
▁lock	-1526
expected	-1527
▁rule	-1528
endpoint	-1529
greg	-1530
rie	-1531
track	-1532
▁delete	-1533
ecall	-1534
responsehandler	-1535
▁close	-1536
pool	-1537
wn	-1538
replace	-1539
ending	-1540
▁1)	-1541
keys	-1542
bound	-1543
ingle	-1544
registr	-1545
▁me	-1546
▁parameters	-1547
1.	-1548
▁same	-1549
devent	-1550
▁channel	-1551
uid	-1552
void	-1553
▁attribute	-1554
gener	-1555
▁more	-1556
zz	-1557
ged	-1558
fields	-1559
edule	-1560
xy	-1561
description	-1562
▁amazon	-1563
▁ref	-1564
▁<=	-1565
▁database	-1566
permission	-1567
▁comm	-1568
nonnull	-1569
atype	-1570
resh	-1571
pattern	-1572
ials	-1573
(@	-1574
parser	-1575
ning	-1576
strategy	-1577
det	-1578
partition	-1579
▁acti	-1580
▁runtime	-1581
▁datas	-1582
inputstream	-1583
sumer	-1584
entication	-1585
day	-1586
gram	-1587
▁period	-1588
▁directory	-1589
ug	-1590
▁where	-1591
▁digit	-1592
▁queue	-1593
nullable	-1594
▁position	-1595
that	-1596
▁open	-1597
▁already	-1598
okup	-1599
▁page	-1600
uctor	-1601
rep	-1602
range	-1603
sequence	-1604
headers	-1605
unmarshaller	-1606
annot	-1607
withresponse	-1608
getid	-1609
ics	-1610
▁verify	-1611
▁af	-1612
resolver	-1613
▁non	-1614
▁contin	-1615
▁expression	-1616
▁line	-1617
renc	-1618
mark	-1619
just	-1620
▁tw	-1621
▁multi	-1622
substring	-1623
01	-1624
▁bit	-1625
throwable	-1626
▁see	-1627
ton	-1628
lifer	-1629
com	-1630
control	-1631
cr	-1632
wrap	-1633
itch	-1634
▁pos	-1635
ud	-1636
number	-1637
metric	-1638
liferay	-1639
▁args	-1640
ative	-1641
filters	-1642
▁location	-1643
▁after	-1644
▁ind	-1645
▁imm	-1646
sor	-1647
sign	-1648
▁[	-1649
loy	-1650
project	-1651
▁may	-1652
▁provided	-1653
float	-1654
▁range	-1655
expression	-1656
▁metrics	-1657
ities	-1658
▁3	-1659
▁clo	-1660
credent	-1661
invalid	-1662
lobal	-1663
policy	-1664
▁factory	-1665
▁character	-1666
perator	-1667
▁word	-1668
▁model	-1669
pk	-1670
seconds	-1671
▁immutable	-1672
initial	-1673
▁reference	-1674
igh	-1675
▁weight	-1676
etch	-1677
▁cach	-1678
▁math	-1679
dom	-1680
groupname	-1681
oral	-1682
cor	-1683
classname	-1684
▁handler	-1685
processor	-1686
▁ar	-1687
wh	-1688
aster	-1689
millis	-1690
▁returned	-1691
servic	-1692
assert	-1693
logger	-1694
imum	-1695
tifact	-1696
ount	-1697
▁serial	-1698
▁orig	-1699
▁continue	-1700
oci	-1701
▁header	-1702
timeout	-1703
cel	-1704
▁unit	-1705
▁jsongenerator	-1706
vity	-1707
rexception	-1708
zone	-1709
loaderwriter	-1710
<>(	-1711
anged	-1712
▁part	-1713
▁cms	-1714
ether	-1715
12	-1716
mer	-1717
▁act	-1718
aly	-1719
▁fe	-1720
ugin	-1721
prod	-1722
account	-1723
▁adds	-1724
ateway	-1725
▁collections	-1726
▁1);	-1727
schema	-1728
filename	-1729
▁information	-1730
ternal	-1731
▁elements	-1732
certificate	-1733
plugin	-1734
▁,	-1735
▁note	-1736
▁tree	-1737
(0,	-1738
▁need	-1739
very	-1740
ected	-1741
remo	-1742
post	-1743
▁whether	-1744
stract	-1745
edul	-1746
folder	-1747
redicate	-1748
2.	-1749
try	-1750
ero	-1751
but	-1752
layout	-1753
month	-1754
rer	-1755
vious	-1756
▁you	-1757
▁pattern	-1758
▁before	-1759
language	-1760
▁executor	-1761
ination	-1762
ioexception	-1763
ix	-1764
▁vis	-1765
▁level	-1766
▁second	-1767
▁listener	-1768
cul	-1769
▁based	-1770
variable	-1771
acces	-1772
tual	-1773
▁servicecall	-1774
ech	-1775
ging	-1776
▁};	-1777
▁called	-1778
addall	-1779
lf	-1780
alog	-1781
org	-1782
assign	-1783
height	-1784
year	-1785
multi	-1786
▁ava	-1787
▁info	-1788
vol	-1789
profile	-1790
ble	-1791
web	-1792
▁he	-1793
settings	-1794
▁register	-1795
▁rm	-1796
memory	-1797
failure	-1798
▁simp	-1799
yph	-1800
ices	-1801
▁represent	-1802
ments	-1803
ormal	-1804
suppress	-1805
swith	-1806
warnings	-1807
failed	-1808
full	-1809
only	-1810
▁container	-1811
ating	-1812
▁blob	-1813
▁web	-1814
▁checks	-1815
msg	-1816
ome	-1817
constants	-1818
persist	-1819
▁handle	-1820
kip	-1821
auto	-1822
▁right	-1823
dest	-1824
▁than	-1825
stateexception	-1826
▁types	-1827
color	-1828
before	-1829
typ	-1830
protocol	-1831
▁datetime	-1832
imal	-1833
ayload	-1834
▁tests	-1835
unc	-1836
bers	-1837
▁vector	-1838
::	-1839
▁fields	-1840
▁make	-1841
valueof	-1842
ority	-1843
▁ed	-1844
▁put	-1845
execute	-1846
▁clean	-1847
02	-1848
checked	-1849
▁retrie	-1850
hasnext	-1851
".	-1852
++;	-1853
style	-1854
▁future	-1855
▁org	-1856
such	-1857
▁medi	-1858
logy	-1859
▁validate	-1860
colle	-1861
▁single	-1862
domain	-1863
ince	-1864
oth	-1865
ven	-1866
▁hashmap	-1867
depend	-1868
▁reader	-1869
▁port	-1870
rency	-1871
▁wait	-1872
▁account	-1873
▁sort	-1874
▁assertthat	-1875
gine	-1876
period	-1877
crement	-1878
fragment	-1879
rest	-1880
▁matrix	-1881
azure	-1882
pass	-1883
active	-1884
▁sign	-1885
▁transaction	-1886
callback	-1887
pub	-1888
executor	-1889
▁fake	-1890
▁left	-1891
inc	-1892
suppresswarnings	-1893
ured	-1894
ek	-1895
custom	-1896
adapter	-1897
▁params	-1898
indexof	-1899
bar	-1900
obj	-1901
▁inst	-1902
lowed	-1903
gettype	-1904
gets	-1905
▁partition	-1906
lyph	-1907
[0]	-1908
cms	-1909
conf	-1910
bycomparator	-1911
ymb	-1912
ik	-1913
bal	-1914
▁available	-1915
▁segment	-1916
▁mer	-1917
ror	-1918
▁la	-1919
▁graph	-1920
left	-1921
ared	-1922
md	-1923
init	-1924
▁iss	-1925
){	-1926
11	-1927
tedexception	-1928
dered	-1929
eners	-1930
▁asserttrue	-1931
intent	-1932
lower	-1933
mount	-1934
handle	-1935
dec	-1936
ick	-1937
lan	-1938
▁send	-1939
single	-1940
▁ign	-1941
anges	-1942
super	-1943
▁switch	-1944
▁old	-1945
itle	-1946
tri	-1947
geta	-1948
device	-1949
ient	-1950
▁su	-1951
the	-1952
▁associ	-1953
▁assign	-1954
resources	-1955
▁down	-1956
vector	-1957
ipel	-1958
▁pas	-1959
batch	-1960
(0);	-1961
▁print	-1962
duration	-1963
▁binds	-1964
ie	-1965
▁bean	-1966
helper	-1967
identifier	-1968
▁init	-1969
▁stop	-1970
▁buff	-1971
▁frame	-1972
ets	-1973
▁created	-1974
package	-1975
▁project	-1976
▁permission	-1977
ensit	-1978
▁address	-1979
containskey	-1980
cat	-1981
wait	-1982
renon	-1983
ell	-1984
▁api	-1985
mt	-1986
▁filename	-1987
▁existing	-1988
binding	-1989
site	-1990
relation	-1991
sa	-1992
utdown	-1993
▁contains	-1994
getinstance	-1995
pair	-1996
//	-1997
template	-1998
orld	-1999
▁full	-2000
sql	-2001
lugin	-2002
ont	-2003
renonnull	-2004
10	-2005
▁obj	-2006
▁names	-2007
stop	-2008
asic	-2009
▁kaleo	-2010
ling	-2011
▁schema	-2012
outputstream	-2013
(",	-2014
register	-2015
▁cle	-2016
executioncontext	-2017
amazon	-2018
bundle	-2019
acity	-2020
▁ehcache	-2021
▁variable	-2022
▁subscri	-2023
▁enum	-2024
matcher	-2025
wise	-2026
enode	-2027
)));	-2028
clear	-2029
registry	-2030
▁dir	-2031
nable	-2032
ward	-2033
until	-2034
gateway	-2035
exists	-2036
sure	-2037
clo	-2038
kale	-2039
off	-2040
▁package	-2041
▁settings	-2042
ape	-2043
counter	-2044
▁sql	-2045
classes	-2046
creat	-2047
datasource	-2048
asyncclient	-2049
leton	-2050
ymbol	-2051
▁execute	-2052
cp	-2053
riter	-2054
▁ctx	-2055
▁member	-2056
▁fakestore	-2057
seta	-2058
men	-2059
',	-2060
64	-2061
▁prefix	-2062
clientexecution	-2063
▁intent	-2064
window	-2065
▁mark	-2066
▁rece	-2067
join	-2068
▁nodes	-2069
▁convert	-2070
aged	-2071
▁actual	-2072
eq	-2073
andid	-2074
gor	-2075
▁prod	-2076
transaction	-2077
uple	-2078
lexception	-2079
elink	-2080
▁mapp	-2081
ecutetime	-2082
man	-2083
▁random	-2084
password	-2085
plier	-2086
ails	-2087
▁passed	-2088
accept	-2089
gorith	-2090
▁buf	-2091
▁timeout	-2092
▁xml	-2093
aff	-2094
nodes	-2095
ds	-2096
pol	-2097
>()	-2098
cast	-2099
▁previous	-2100
split	-2101
▁").	-2102
▁inputstream	-2103
items	-2104
▁todo	-2105
ific	-2106
▁enco	-2107
box	-2108
▁keys	-2109
▁loc	-2110
limit	-2111
▁bo	-2112
tags	-2113
▁day	-2114
)}.	-2115
endar	-2116
endevent	-2117
▁under	-2118
▁invalid	-2119
[1	-2120
ced	-2121
short	-2122
▁custom	-2123
med	-2124
compare	-2125
},	-2126
▁big	-2127
attach	-2128
2);	-2129
▁constraint	-2130
andard	-2131
getstring	-2132
come	-2133
runtime	-2134
decl	-2135
stats	-2136
▁4	-2137
000	-2138
lis	-2139
▁stack	-2140
interface	-2141
tain	-2142
▁bec	-2143
▁apply	-2144
▁append	-2145
▁calcul	-2146
ater	-2147
▁linked	-2148
▁complet	-2149
sw	-2150
kind	-2151
secret	-2152
▁plugin	-2153
sort	-2154
▁implementation	-2155
▁filters	-2156
dim	-2157
lot	-2158
(_	-2159
▁throwable	-2160
▁otherwise	-2161
tab	-2162
aded	-2163
wrapper	-2164
ategory	-2165
▁parser	-2166
▁fa	-2167
simp	-2168
contact	-2169
ugh	-2170
ermin	-2171
ple	-2172
▁mo	-2173
▁form	-2174
▁duration	-2175
lap	-2176
▁batch	-2177
extension	-2178
unchecked	-2179
▁post	-2180
cs	-2181
▁begin	-2182
namespace	-2183
ole	-2184
activity	-2185
▁;	-2186
▁now	-2187
ias	-2188
subscription	-2189
repository	-2190
-1	-2191
ibu	-2192
▁0);	-2193
▁ren	-2194
▁locale	-2195
▁results	-2196
▁display	-2197
▁diff	-2198
src	-2199
▁pass	-2200
unable	-2201
ehcache	-2202
lt	-2203
ili	-2204
olute	-2205
▁rest	-2206
fieldname	-2207
portal	-2208
rate	-2209
▁rot	-2210
{@	-2211
▁original	-2212
clientexception	-2213
compute	-2214
ived	-2215
▁fix	-2216
▁provider	-2217
▁entries	-2218
now	-2219
▁tmp	-2220
ped	-2221
▁window	-2222
tot	-2223
ferences	-2224
ges	-2225
▁my	-2226
ier	-2227
sm	-2228
amount	-2229
holder	-2230
▁execution	-2231
▁zone	-2232
ruptedexception	-2233
idd	-2234
requirenonnull	-2235
none	-2236
accessconditions	-2237
mapper	-2238
servlet	-2239
ycle	-2240
amazonaws	-2241
▁simple	-2242
▁writer	-2243
▁scope	-2244
ins	-2245
elements	-2246
network	-2247
incip	-2248
round	-2249
▁clear	-2250
▁real	-2251
oint	-2252
rough	-2253
buf	-2254
jav	-2255
▁cap	-2256
converter	-2257
▁dq	-2258
="	-2259
▁sp	-2260
▁security	-2261
ports	-2262
ution	-2263
gress	-2264
can	-2265
]);	-2266
orig	-2267
river	-2268
database	-2269
collections	-2270
writ	-2271
▁callback	-2272
operator	-2273
20	-2274
roid	-2275
▁lang	-2276
▁equal	-2277
step	-2278
startswith	-2279
flu	-2280
sresult	-2281
▁endpoint	-2282
eduler	-2283
▁typ	-2284
ysteme	-2285
▁clazz	-2286
**	-2287
rop	-2288
belement	-2289
environment	-2290
▁jax	-2291
▁cause	-2292
connect	-2293
anc	-2294
▁split	-2295
accessexception	-2296
commit	-2297
my	-2298
side	-2299
credentials	-2300
kernel	-2301
iction	-2302
parator	-2303
sert	-2304
pagelink	-2305
alle	-2306
ystemexception	-2307
gorithm	-2308
found	-2309
lish	-2310
▁len	-2311
jection	-2312
outcome	-2313
loyment	-2314
32	-2315
▁reset	-2316
stribu	-2317
▁registered	-2318
▁present	-2319
\\	-2320
ceptor	-2321
▁matcher	-2322
encoding	-2323
timestamp	-2324
▁bet	-2325
▁{}",	-2326
used	-2327
▁pair	-2328
▁prepa	-2329
eded	-2330
rees	-2331
▁exists	-2332
▁attributes	-2333
▁1,	-2334
desc	-2335
▁sequence	-2336
.",	-2337
cent	-2338
ipeline	-2339
ispatch	-2340
▁month	-2341
▁"/	-2342
available	-2343
apply	-2344
▁conf	-2345
escap	-2346
▁associated	-2347
ignore	-2348
getproperty	-2349
▁ph	-2350
results	-2351
▁ss	-2352
▁delet	-2353
codes	-2354
▁body	-2355
▁term	-2356
pc	-2357
ux	-2358
send	-2359
dataset	-2360
');	-2361
ervice	-2362
persistence	-2363
cket	-2364
▁pop	-2365
▁color	-2366
increment	-2367
ship	-2368
▁main	-2369
▁change	-2370
interval	-2371
anos	-2372
ypro	-2373
recated	-2374
22	-2375
shard	-2376
selector	-2377
▁because	-2378
▁pe	-2379
>,	-2380
iteral	-2381
▁mock	-2382
role	-2383
marker	-2384
ordin	-2385
▁certificate	-2386
tim	-2387
▁arrays	-2388
▁nm	-2389
▁atom	-2390
eet	-2391
ason	-2392
▁flag	-2393
▁tot	-2394
{}	-2395
ush	-2396
decimal	-2397
asser	-2398
wik	-2399
members	-2400
controller	-2401
▁condition	-2402
author	-2403
▁some	-2404
asure	-2405
udi	-2406
▁-1;	-2407
▁include	-2408
▁evalu	-2409
ctx	-2410
html	-2411
▁man	-2412
▁since	-2413
▁internal	-2414
▁jav	-2415
aggreg	-2416
▁abstract	-2417
consumer	-2418
foun	-2419
▁bin	-2420
▁pool	-2421
singleton	-2422
gle	-2423
▁topic	-2424
▁bound	-2425
▁messages	-2426
▁year	-2427
()}	-2428
getaws	-2429
▁added	-2430
meta	-2431
matrix	-2432
▁describe	-2433
▁extension	-2434
respon	-2435
df	-2436
▁depend	-2437
3,	-2438
▁two	-2439
rece	-2440
▁writ	-2441
player	-2442
rout	-2443
card	-2444
getawsresponse	-2445
▁perform	-2446
)).	-2447
▁don	-2448
▁items	-2449
rans	-2450
ied	-2451
▁gu	-2452
entryset	-2453
foundexception	-2454
cause	-2455
construct	-2456
▁iterable	-2457
transform	-2458
ose	-2459
▁",	-2460
ingest	-2461
tagged	-2462
ween	-2463
▁fol	-2464
agent	-2465
ipp	-2466
angle	-2467
▁step	-2468
success	-2469
▁statement	-2470
lookup	-2471
modified	-2472
▁generate	-2473
children	-2474
taggedword	-2475
ocation	-2476
ique	-2477
▁credent	-2478
term	-2479
cell	-2480
ither	-2481
----	-2482
▁determin	-2483
legate	-2484
ucer	-2485
messag	-2486
▁extr	-2487
ns	-2488
idx	-2489
self	-2490
▁findby	-2491
utf	-2492
artifact	-2493
▁describ	-2494
▁transform	-2495
seq	-2496
▁just	-2497
groups	-2498
▁network	-2499
also	-2500
▁repository	-2501
net	-2502
select	-2503
▁aggreg	-2504
incipal	-2505
▁through	-2506
▁here	-2507
▁failed	-2508
ice	-2509
▁colle	-2510
sequ	-2511
▁description	-2512
▁dataset	-2513
volume	-2514
top	-2515
▁without	-2516
real	-2517
▁timestamp	-2518
▁ke	-2519
▁flu	-2520
nipp	-2521
▁control	-2522
present	-2523
vision	-2524
ict	-2525
▁amount	-2526
utes	-2527
filesystem	-2528
lick	-2529
▁authentication	-2530
▁commit	-2531
▁supported	-2532
apro	-2533
(!	-2534
2)	-2535
section	-2536
▁join	-2537
ful	-2538
trim	-2539
authentication	-2540
username	-2541
▁methods	-2542
coded	-2543
▁resources	-2544
▁skip	-2545
▁success	-2546
')	-2547
actions	-2548
▁instances	-2549
vir	-2550
▁wrap	-2551
ifiers	-2552
▁short	-2553
▁chron	-2554
atest	-2555
▁servicecallback	-2556
>)	-2557
stor	-2558
▁storage	-2559
▁also	-2560
cb	-2561
cance	-2562
ular	-2563
▁red	-2564
proxy	-2565
▁meta	-2566
▁sto	-2567
adi	-2568
ift	-2569
locale	-2570
hashmap	-2571
▁folder	-2572
charat	-2573
▁-1)	-2574
▁track	-2575
setting	-2576
random	-2577
ences	-2578
known	-2579
virtual	-2580
▁global	-2581
snapshot	-2582
▁jaxbelement	-2583
▁limit	-2584
▁registr	-2585
lig	-2586
adat	-2587
▁environment	-2588
▁top	-2589
▁fetch	-2590
econfig	-2591
complete	-2592
▁io	-2593
buff	-2594
verse	-2595
▁specific	-2596
extr	-2597
worker	-2598
▁".	-2599
▁obtain	-2600
▁sync	-2601
ra	-2602
delet	-2603
iterable	-2604
ensitiv	-2605
omp	-2606
lines	-2607
▁tab	-2608
(",");	-2609
▁lookup	-2610
▁temporal	-2611
mutable	-2612
coder	-2613
▁hashset	-2614
scope	-2615
▁removes	-2616
uce	-2617
selection	-2618
ten	-2619
>>>	-2620
▁ent	-2621
()),	-2622
dd	-2623
alyz	-2624
ript	-2625
▁remote	-2626
execution	-2627
reset	-2628
rigger	-2629
▁sq	-2630
▁utils	-2631
dt	-2632
engine	-2633
▁classloader	-2634
▁poss	-2635
schedule	-2636
sync	-2637
socket	-2638
▁go	-2639
iver	-2640
uuid	-2641
cover	-2642
vide	-2643
derer	-2644
ma	-2645
▁active	-2646
title	-2647
▁html	-2648
mail	-2649
big	-2650
▁them	-2651
fam	-2652
plan	-2653
watch	-2654
admin	-2655
rical	-2656
deprecated	-2657
master	-2658
.<	-2659
jar	-2660
describe	-2661
lex	-2662
ested	-2663
ily	-2664
▁total	-2665
constraint	-2666
imer	-2667
licit	-2668
delement	-2669
after	-2670
▁protocol	-2671
▁schedule	-2672
region	-2673
def	-2674
feature	-2675
prop	-2676
▁scan	-2677
weight	-2678
rection	-2679
trackchange	-2680
hing	-2681
ypar	-2682
methods	-2683
clean	-2684
▁attemp	-2685
button	-2686
flat	-2687
▁basic	-2688
0;	-2689
▁player	-2690
▁fragment	-2691
inte	-2692
▁defined	-2693
▁"'	-2694
istory	-2695
visible	-2696
▁func	-2697
ewriter	-2698
▁selection	-2699
▁best	-2700
points	-2701
roll	-2702
ended	-2703
stanti	-2704
train	-2705
lastic	-2706
separator	-2707
▁counter	-2708
ash	-2709
display	-2710
▁extract	-2711
▁replace	-2712
▁pers	-2713
math	-2714
sets	-2715
▁debug	-2716
▁between	-2717
locator	-2718
global	-2719
▁they	-2720
gen	-2721
topic	-2722
texception	-2723
://	-2724
▁author	-2725
▁secret	-2726
changed	-2727
▁standard	-2728
▁template	-2729
ka	-2730
clus	-2731
0,	-2732
safe	-2733
▁5	-2734
tw	-2735
▁calls	-2736
▁domain	-2737
▁running	-2738
▁classname	-2739
▁("	-2740
ferred	-2741
product	-2742
da	-2743
▁--	-2744
book	-2745
▁diffe	-2746
▁width	-2747
▁star	-2748
capacity	-2749
▁encoding	-2750
finder	-2751
selected	-2752
rice	-2753
▁tags	-2754
scan	-2755
classloader	-2756
▁getpersistence	-2757
ows	-2758
("/	-2759
▁within	-2760
▁chrono	-2761
ynam	-2762
equal	-2763
currency	-2764
1<	-2765
ixel	-2766
reshold	-2767
▁unmarshaller	-2768
ryp	-2769
processing	-2770
reser	-2771
vault	-2772
▁retrieve	-2773
autoconstruct	-2774
ffix	-2775
▁contact	-2776
mock	-2777
▁predicate	-2778
sdk	-2779
nion	-2780
▁sdk	-2781
ically	-2782
▁timeunit	-2783
▁representation	-2784
▁'"	-2785
21	-2786
▁namespace	-2787
▁connect	-2788
▁expr	-2789
acy	-2790
▁acc	-2791
▁interface	-2792
ii	-2793
direct	-2794
feed	-2795
▁aut	-2796
fake	-2797
marshalling	-2798
▁show	-2799
temporal	-2800
owner	-2801
scal	-2802
struct	-2803
vertex	-2804
andidate	-2805
emp	-2806
▁allow	-2807
▁children	-2808
columns	-2809
▁instead	-2810
▁descriptor	-2811
▁identifier	-2812
],	-2813
fetch	-2814
brary	-2815
▁invok	-2816
izes	-2817
panel	-2818
chunk	-2819
▁shard	-2820
▁preconditions	-2821
faces	-2822
▁unsupported	-2823
arguments	-2824
igest	-2825
▁ignore	-2826
▁via	-2827
==	-2828
chain	-2829
▁"",	-2830
▁++	-2831
remote	-2832
usters	-2833
paths	-2834
▁arguments	-2835
▁select	-2836
resourc	-2837
tered	-2838
ck	-2839
▁matches	-2840
▁oc	-2841
▁selected	-2842
▁snapshot	-2843
)");	-2844
uring	-2845
keyset	-2846
dbc	-2847
atures	-2848
ablefuture	-2849
chrono	-2850
ditional	-2851
▁about	-2852
▁normal	-2853
balanc	-2854
formatter	-2855
uer	-2856
▁style	-2857
writefieldname	-2858
▁ii	-2859
illi	-2860
world	-2861
absolute	-2862
▁constructor	-2863
asc	-2864
▁runnable	-2865
▁retval	-2866
intvalue	-2867
maining	-2868
ely	-2869
ayment	-2870
attr	-2871
lative	-2872
cn	-2873
listeners	-2874
stacktrace	-2875
tive	-2876
viders	-2877
generator	-2878
stribution	-2879
▁currently	-2880
plus	-2881
artic	-2882
ewith	-2883
ground	-2884
4,	-2885
aslist	-2886
deli	-2887
▁ssl	-2888
lows	-2889
ibility	-2890
ump	-2891
paces	-2892
cessed	-2893
▁bytebuffer	-2894
▁ip	-2895
unch	-2896
uses	-2897
▁configured	-2898
▁nosuch	-2899
▁headers	-2900
▁fak	-2901
clared	-2902
ors	-2903
▁operations	-2904
idget	-2905
▁logging	-2906
▁correspon	-2907
▁until	-2908
dependency	-2909
▁raw	-2910
collect	-2911
▁cached	-2912
idden	-2913
▁proxy	-2914
▁setting	-2915
convert	-2916
predicate	-2917
▁train	-2918
glyph	-2919
▁route	-2920
▁scheduler	-2921
▁util	-2922
bits	-2923
legal	-2924
▁sorted	-2925
getparent	-2926
)))	-2927
unknown	-2928
▁enabled	-2929
peer	-2930
best	-2931
etoken	-2932
literal	-2933
▁adapter	-2934
▁sol	-2935
jo	-2936
▁could	-2937
<?>>	-2938
ifiable	-2939
payload	-2940
▁report	-2941
jsonunmarshaller	-2942
resses	-2943
park	-2944
▁quer	-2945
▁sm	-2946
getpath	-2947
hs	-2948
validation	-2949
▁br	-2950
tax	-2951
lowercase	-2952
▁once	-2953
ifest	-2954
▁region	-2955
rs	-2956
▁artifact	-2957
▁loader	-2958
▁follow	-2959
▁language	-2960
responsebody	-2961
category	-2962
notification	-2963
▁pla	-2964
▁either	-2965
ha	-2966
gative	-2967
aget	-2968
▁example	-2969
miss	-2970
▁ensure	-2971
qualified	-2972
▁look	-2973
▁resolve	-2974
▁vir	-2975
▁expect	-2976
instances	-2977
(1);	-2978
▁release	-2979
resolve	-2980
aller	-2981
stanc	-2982
plied	-2983
▁relation	-2984
collector	-2985
▁both	-2986
req	-2987
▁ax	-2988
▁classes	-2989
ways	-2990
▁auto	-2991
ene	-2992
▁being	-2993
ability	-2994
ites	-2995
destination	-2996
istics	-2997
▁chunk	-2998
▁direct	-2999
span	-3000
assertequals	-3001
connector	-3002
grade	-3003
1);	-3004
▁tx	-3005
tool	-3006
delay	-3007
lying	-3008
▁destination	-3009
▁sure	-3010
▁manager	-3011
▁stringbuffer	-3012
▁va	-3013
▁dim	-3014
▁ordered	-3015
shutdown	-3016
incrementcount	-3017
cannot	-3018
oned	-3019
▁icon	-3020
▁binding	-3021
schem	-3022
cursor	-3023
eclass	-3024
operations	-3025
▁struct	-3026
fac	-3027
dr	-3028
login	-3029
▁consumer	-3030
ressed	-3031
▁cursor	-3032
vari	-3033
arraylist	-3034
ensitivity	-3035
could	-3036
▁events	-3037
▁inttaggedword	-3038
vm	-3039
▁ct	-3040
▁ident	-3041
apped	-3042
▁virtual	-3043
character	-3044
▁buffered	-3045
writevalue	-3046
comb	-3047
shape	-3048
public	-3049
▁bundle	-3050
irror	-3051
userid	-3052
▁annot	-3053
▁env	-3054
▁src	-3055
▁vol	-3056
entic	-3057
isdebug	-3058
▁override	-3059
ture	-3060
▁updates	-3061
sq	-3062
report	-3063
▁correct	-3064
▁tostring	-3065
ativ	-3066
▁tuple	-3067
(1,	-3068
credential	-3069
▁pol	-3070
nippet	-3071
pology	-3072
newinstance	-3073
▁permissions	-3074
▁thrown	-3075
▁setup	-3076
▁section	-3077
▁converts	-3078
play	-3079
lection	-3080
annotations	-3081
baseurl	-3082
▁compar	-3083
evalu	-3084
instr	-3085
listwith	-3086
▁persist	-3087
validator	-3088
show	-3089
binary	-3090
▁notification	-3091
▁modified	-3092
▁tri	-3093
illegal	-3094
etag	-3095
▁sum	-3096
light	-3097
factor	-3098
interceptor	-3099
ifies	-3100
▁feature	-3101
▁glyph	-3102
flatmap	-3103
subscriptionid	-3104
zero	-3105
▁multiple	-3106
getdefault	-3107
isdebugenabled	-3108
▁named	-3109
absent	-3110
script	-3111
uction	-3112
clazz	-3113
okie	-3114
ictionary	-3115
0000	-3116
▁req	-3117
encies	-3118
▁uses	-3119
cryp	-3120
endrical	-3121
normal	-3122
▁definition	-3123
!");	-3124
anch	-3125
▁>>	-3126
ison	-3127
otstr	-3128
priority	-3129
based	-3130
▁unknown	-3131
▁calendar	-3132
▁policy	-3133
][	-3134
when	-3135
draw	-3136
services	-3137
ignorecase	-3138
achine	-3139
▁compute	-3140
▁password	-3141
serializer	-3142
▁maximum	-3143
timemillis	-3144
▁containing	-3145
declar	-3146
enumber	-3147
required	-3148
▁play	-3149
upload	-3150
ecache	-3151
band	-3152
flags	-3153
lta	-3154
ablet	-3155
named	-3156
▁supplied	-3157
▁atomic	-3158
▁mono	-3159
▁removed	-3160
▁support	-3161
▁every	-3162
▁another	-3163
▁score	-3164
direc	-3165
ision	-3166
scale	-3167
▁changed	-3168
[])	-3169
▁high	-3170
▁processor	-3171
its	-3172
▁1.0	-3173
fc	-3174
velo	-3175
tokens	-3176
instant	-3177
icket	-3178
rel	-3179
blocking	-3180
▁serviceresponse	-3181
ll	-3182
cep	-3183
▁role	-3184
subscribe	-3185
▁\"	-3186
go	-3187
▁validation	-3188
lers	-3189
▁listeners	-3190
ipe	-3191
▁reads	-3192
records	-3193
3;	-3194
▁"]	-3195
lice	-3196
anaged	-3197
▁device	-3198
env	-3199
yntax	-3200
▁program	-3201
diff	-3202
ffect	-3203
annotator	-3204
▁grid	-3205
▁possible	-3206
words	-3207
▁lists	-3208
bytebuffer	-3209
ops	-3210
▁socket	-3211
▁os	-3212
▁game	-3213
▁sent	-3214
bytearray	-3215
▁characters	-3216
invoke	-3217
ia	-3218
total	-3219
▁groupid	-3220
▁pending	-3221
shift	-3222
validate	-3223
upper	-3224
matches	-3225
ank	-3226
article	-3227
indices	-3228
▁credentials	-3229
abstract	-3230
optional	-3231
axis	-3232
aver	-3233
▁like	-3234
ifunction	-3235
systemexception	-3236
▁0.0	-3237
foreach	-3238
▁6	-3239
▁doesn	-3240
ving	-3241
▁spy	-3242
orter	-3243
encounter	-3244
▁"";	-3245
uplic	-3246
static	-3247
cf	-3248
▁laz	-3249
warning	-3250
inf	-3251
plain	-3252
supplier	-3253
flush	-3254
stype	-3255
modifiable	-3256
ssl	-3257
▁cos	-3258
▁memory	-3259
ented	-3260
vance	-3261
▁such	-3262
▁getany	-3263
urse	-3264
▁compare	-3265
dialog	-3266
inst	-3267
▁jar	-3268
formed	-3269
▁cm	-3270
▁dec	-3271
▁height	-3272
▁import	-3273
▁following	-3274
delegate	-3275
kaleo	-3276
▁media	-3277
▁vault	-3278
▁profile	-3279
▁different	-3280
ually	-3281
tolowercase	-3282
stmt	-3283
ynamic	-3284
5,	-3285
adjust	-3286
tobject	-3287
200	-3288
pop	-3289
prev	-3290
aves	-3291
▁their	-3292
▁execut	-3293
▁mapping	-3294
poch	-3295
▁merge	-3296
ader	-3297
▁bro	-3298
▁datasource	-3299
▁).	-3300
▁men	-3301
simple	-3302
▁converter	-3303
alias	-3304
▁matching	-3305
(".	-3306
▁keep	-3307
exit	-3308
▁attach	-3309
deployment	-3310
dimension	-3311
sk	-3312
▁2)	-3313
▁inclu	-3314
▁provide	-3315
▁cleanxml	-3316
▁always	-3317
▁<<	-3318
itive	-3319
▁helper	-3320
▁configure	-3321
ilities	-3322
mediate	-3323
otstrap	-3324
▁checknotnull	-3325
▁instr	-3326
indexes	-3327
eric	-3328
expr	-3329
▁deleted	-3330
▁save	-3331
findby	-3332
running	-3333
describ	-3334
lib	-3335
▁ge	-3336
▁none	-3337
created	-3338
ote	-3339
▁}{@	-3340
eclient	-3341
▁generic	-3342
gu	-3343
ansition	-3344
▁username	-3345
getresource	-3346
▁tokens	-3347
distance	-3348
▁enumset	-3349
▁exchange	-3350
expi	-3351
trun	-3352
▁stored	-3353
ventory	-3354
▁"+	-3355
▁cell	-3356
ited	-3357
score	-3358
▁flow	-3359
▁dr	-3360
acted	-3361
alsecond	-3362
days	-3363
finish	-3364
verify	-3365
▁operator	-3366
▁lm	-3367
▁div	-3368
lisher	-3369
mirror	-3370
▁metric	-3371
akes	-3372
▁allowed	-3373
pp	-3374
fakestore	-3375
tokenizer	-3376
sec	-3377
▁rout	-3378
toarray	-3379
▁calling	-3380
▁sqlexception	-3381
▁finds	-3382
nan	-3383
identity	-3384
▁async	-3385
▁sample	-3386
curren	-3387
▁props	-3388
constructor	-3389
▁initialize	-3390
▁script	-3391
▁corresponding	-3392
equalsignorecase	-3393
home	-3394
▁render	-3395
▁seconds	-3396
cancel	-3397
▁specify	-3398
▁subscription	-3399
juster	-3400
▁adjust	-3401
▁resolved	-3402
▁fromindex	-3403
▁updat	-3404
pageasync	-3405
▁signature	-3406
icro	-3407
iler	-3408
▁execu	-3409
▁layer	-3410
>>()	-3411
▁"-	-3412
driver	-3413
▁chain	-3414
amples	-3415
▁immutablelist	-3416
tom	-3417
▁expi	-3418
etable	-3419
nosuch	-3420
compat	-3421
should	-3422
uch	-3423
include	-3424
▁modules	-3425
illiseconds	-3426
menu	-3427
▁rel	-3428
contenttype	-3429
rot	-3430
tod	-3431
▁wri	-3432
nextpagelink	-3433
so	-3434
sex	-3435
aved	-3436
ines	-3437
more	-3438
props	-3439
▁localdate	-3440
▁rotation	-3441
▁maps	-3442
▁eq	-3443
tmp	-3444
▁finish	-3445
ocus	-3446
alyzer	-3447
cessary	-3448
deleted	-3449
▁columns	-3450
ierarch	-3451
ele	-3452
sume	-3453
fully	-3454
▁worker	-3455
detail	-3456
actual	-3457
wiki	-3458
▁email	-3459
▁cons	-3460
▁sk	-3461
▁nothing	-3462
▁needed	-3463
▁comparator	-3464
▁space	-3465
game	-3466
▁serv	-3467
▁prop	-3468
▁shutdown	-3469
observer	-3470
progress	-3471
▁plan	-3472
allowed	-3473
information	-3474
vert	-3475
udio	-3476
▁way	-3477
route	-3478
▁bytearray	-3479
ys	-3480
bucket	-3481
balancer	-3482
[0];	-3483
urnal	-3484
▁axis	-3485
getbody	-3486
▁border	-3487
▁indicate	-3488
allow	-3489
▁primary	-3490
▁fixed	-3491
clusive	-3492
▁distance	-3493
done	-3494
16	-3495
▁userid	-3496
endswith	-3497
cos	-3498
support	-3499
▁strings	-3500
then	-3501
▁done	-3502
▁terms	-3503
missing	-3504
prepa	-3505
fec	-3506
less	-3507
indows	-3508
▁unique	-3509
distribution	-3510
enot	-3511
▁starts	-3512
▁["	-3513
▁latest	-3514
▁leg	-3515
comment	-3516
reen	-3517
requ	-3518
release	-3519
segments	-3520
▁cf	-3521
ident	-3522
▁construct	-3523
tagl	-3524
▁generates	-3525
getstatus	-3526
ival	-3527
▁combin	-3528
blog	-3529
preference	-3530
scheme	-3531
program	-3532
▁would	-3533
▁jsonobject	-3534
ping	-3535
▁priority	-3536
▁},	-3537
▁prob	-3538
tible	-3539
vices	-3540
▁again	-3541
▁kind	-3542
adding	-3543
arrays	-3544
interrup	-3545
havi	-3546
▁off	-3547
endobject	-3548
accessor	-3549
checkpoint	-3550
enter	-3551
▁most	-3552
▁requests	-3553
nls	-3554
▁during	-3555
cached	-3556
▁pl	-3557
▁emit	-3558
▁accept	-3559
▁button	-3560
▁mapper	-3561
▁least	-3562
calendar	-3563
pose	-3564
▁how	-3565
balance	-3566
operationoutcome	-3567
▁cat	-3568
updat	-3569
▁changes	-3570
packet	-3571
▁android	-3572
itu	-3573
▁rect	-3574
metadat	-3575
▁errors	-3576
immutable	-3577
▁interval	-3578
adius	-3579
▁appli	-3580
▁popul	-3581
symbol	-3582
pipeline	-3583
▁paths	-3584
agename	-3585
▁processing	-3586
oop	-3587
▁insert	-3588
ifabsent	-3589
▁servlet	-3590
erial	-3591
hostname	-3592
▁groups	-3593
bund	-3594
▁aws	-3595
▁coordin	-3596
printstacktrace	-3597
attribut	-3598
▁collect	-3599
▁completed	-3600
▁additional	-3601
▁pk	-3602
atis	-3603
algorithm	-3604
▁starting	-3605
▁classpath	-3606
▁trees	-3607
eno	-3608
era	-3609
fecycle	-3610
checknotnull	-3611
▁algorithm	-3612
xff	-3613
zip	-3614
▁zero	-3615
▁download	-3616
▁dispatch	-3617
ross	-3618
kevent	-3619
▁world	-3620
▁updated	-3621
▁constant	-3622
note	-3623
ables	-3624
issuer	-3625
replic	-3626
▁nanos	-3627
click	-3628
▁tasks	-3629
complet	-3630
loaded	-3631
▁notify	-3632
▁trigger	-3633
oice	-3634
markup	-3635
invocation	-3636
oken	-3637
▁our	-3638
▁trace	-3639
modules	-3640
▁layout	-3641
added	-3642
alloc	-3643
(...	-3644
▁resourc	-3645
buffers	-3646
▁forward	-3647
▁currency	-3648
poll	-3649
covery	-3650
ilience	-3651
▁subquery	-3652
▁common	-3653
▁requested	-3654
0);	-3655
price	-3656
quival	-3657
▁appro	-3658
iliencestrategy	-3659
thing	-3660
▁cancel	-3661
▁ds	-3662
▁scale	-3663
▁master	-3664
bifunction	-3665
0)	-3666
merge	-3667
▁toindex	-3668
digit	-3669
▁want	-3670
:"	-3671
align	-3672
omat	-3673
pane	-3674
▁attr	-3675
parseint	-3676
▁loop	-3677
▁0.	-3678
foo	-3679
yon	-3680
signature	-3681
singletonmap	-3682
ym	-3683
ators	-3684
utation	-3685
bro	-3686
begin	-3687
vet	-3688
alsecondary	-3689
▁assigned	-3690
umul	-3691
▁abs	-3692
onical	-3693
workflow	-3694
▁outputstream	-3695
oldvalue	-3696
▁members	-3697
▁sheet	-3698
measure	-3699
▁caller	-3700
▁shared	-3701
getcurrent	-3702
▁equals	-3703
▁services	-3704
▁binary	-3705
▁prepare	-3706
edge	-3707
sheet	-3708
▁bits	-3709
▁pt	-3710
archive	-3711
byp	-3712
classpath	-3713
lack	-3714
classpk	-3715
ispresent	-3716
aren	-3717
▁peer	-3718
backup	-3719
reenode	-3720
▁realm	-3721
connected	-3722
runtimeexception	-3723
lled	-3724
email	-3725
fro	-3726
rex	-3727
▁closed	-3728
▁");	-3729
▁push	-3730
absolutepath	-3731
▁idx	-3732
spied	-3733
izable	-3734
spiedres	-3735
▁bigdecimal	-3736
▁dependency	-3737
▁constraints	-3738
▁cs	-3739
▁writes	-3740
setproperty	-3741
hook	-3742
asename	-3743
▁bar	-3744
▁feed	-3745
lelement	-3746
▁explicit	-3747
uces	-3748
▁generated	-3749
gb	-3750
▁scal	-3751
▁ig	-3752
history	-3753
▁paralle	-3754
▁instanti	-3755
mask	-3756
ierarchy	-3757
shared	-3758
eration	-3759
getuser	-3760
▁validatestats	-3761
▁requires	-3762
bl	-3763
renderer	-3764
▁initialized	-3765
jsongenerator	-3766
▁draw	-3767
▁labels	-3768
startindex	-3769
roy	-3770
lobject	-3771
idge	-3772
▁recur	-3773
details	-3774
pointe	-3775
seed	-3776
▁watch	-3777
(...)");	-3778
1)	-3779
hel	-3780
border	-3781
▁termin	-3782
air	-3783
odel	-3784
monitor	-3785
▁inputs	-3786
beat	-3787
cogn	-3788
fine	-3789
lash	-3790
▁slot	-3791
generated	-3792
interfaces	-3793
acceptlanguage	-3794
pointerexception	-3795
closed	-3796
unlock	-3797
principal	-3798
▁points	-3799
++]	-3800
▁assertion	-3801
▁contract	-3802
assignment	-3803
[1]	-3804
▁ow	-3805
oogle	-3806
share	-3807
econtext	-3808
media	-3809
leep	-3810
phase	-3811
▁records	-3812
summary	-3813
▁deli	-3814
library	-3815
inventory	-3816
quivalent	-3817
▁connector	-3818
▁underlying	-3819
25	-3820
▁span	-3821
metype	-3822
▁attempt	-3823
▁determine	-3824
bitmap	-3825
upport	-3826
▁igno	-3827
▁vari	-3828
andset	-3829
qualifier	-3830
original	-3831
screen	-3832
high	-3833
dl	-3834
sol	-3835
errors	-3836
▁parsed	-3837
common	-3838
ression	-3839
▁ids	-3840
▁localvar	-3841
._	-3842
printf	-3843
▁happ	-3844
▁agent	-3845
▁engine	-3846
resolved	-3847
[]{	-3848
mitive	-3849
pi	-3850
▁times	-3851
▁dimension	-3852
▁components	-3853
ilab	-3854
(0).	-3855
family	-3856
private	-3857
▁ignite	-3858
▁pipeline	-3859
/*	-3860
umb	-3861
▁nextpagelink	-3862
tasks	-3863
▁prev	-3864
▁newvalue	-3865
tl	-3866
▁admin	-3867
▁getter	-3868
▁vertex	-3869
▁measure	-3870
▁activity	-3871
▁never	-3872
▁bucket	-3873
[2	-3874
ense	-3875
visit	-3876
▁markup	-3877
cm	-3878
aset	-3879
uris	-3880
▁book	-3881
achyon	-3882
adcast	-3883
▁cloud	-3884
▁complete	-3885
ialog	-3886
insert	-3887
getbytes	-3888
proto	-3889
▁side	-3890
▁controller	-3891
▁instant	-3892
▁vm	-3893
istic	-3894
<?,	-3895
ecomp	-3896
econt	-3897
▁drop	-3898
pending	-3899
realm	-3900
reason	-3901
agement	-3902
sdkinternal	-3903
grid	-3904
▁still	-3905
▁driver	-3906
▁market	-3907
▁packet	-3908
▁partic	-3909
bounds	-3910
querypar	-3911
bot	-3912
lapsed	-3913
▁finder	-3914
▁contents	-3915
econfiguration	-3916
vertible	-3917
apiversion	-3918
etrans	-3919
sorted	-3920
httpheaders	-3921
▁deployment	-3922
hex	-3923
aml	-3924
unded	-3925
▁yet	-3926
submit	-3927
gettext	-3928
xm	-3929
3.	-3930
()}.	-3931
atom	-3932
routing	-3933
▁constants	-3934
fn	-3935
artbeat	-3936
▁nested	-3937
▁principal	-3938
singlepageasync	-3939
skip	-3940
fixed	-3941
latform	-3942
▁respon	-3943
dispatch	-3944
▁creating	-3945
lism	-3946
osite	-3947
▁miss	-3948
▁paged	-3949
ryption	-3950
▁occur	-3951
abilities	-3952
pn	-3953
onode	-3954
▁desc	-3955
events	-3956
▁refresh	-3957
▁preference	-3958
reserved	-3959
▁catalog	-3960
(()	-3961
basic	-3962
letter	-3963
widget	-3964
▁minimum	-3965
▁what	-3966
getentry	-3967
registered	-3968
loop	-3969
▁cre	-3970
▁calculate	-3971
▁net	-3972
▁alloc	-3973
▁phase	-3974
instancerequest	-3975
series	-3976
▁these	-3977
uff	-3978
asource	-3979
▁fakecache	-3980
subject	-3981
▁modify	-3982
font	-3983
groupid	-3984
▁details	-3985
])	-3986
▁escap	-3987
▁charset	-3988
▁zip	-3989
▁registry	-3990
▁pur	-3991
trust	-3992
▁delay	-3993
▁payload	-3994
▁variables	-3995
▁ec	-3996
defined	-3997
ilation	-3998
▁started	-3999
push	-4000
tories	-4001
iration	-4002
ives	-4003
import	-4004
▁users	-4005
▁launch	-4006
wri	-4007
termin	-4008
ire	-4009
orary	-4010
▁clone	-4011
▁known	-4012
getfirst	-4013
bor	-4014
timer	-4015
digest	-4016
sdkinternallist	-4017
▁dqx	-4018
▁loaded	-4019
▁upload	-4020
▁publish	-4021
aut	-4022
gest	-4023
▁resolver	-4024
ensitive	-4025
▁queryexception	-4026
getrequest	-4027
yper	-4028
miter	-4029
▁fast	-4030
▁uuid	-4031
rentry	-4032
▁fully	-4033
getehcache	-4034
ants	-4035
vals	-4036
▁self	-4037
market	-4038
mented	-4039
▁avoid	-4040
▁comment	-4041
(3	-4042
enames	-4043
▁?>	-4044
▁cr	-4045
▁reason	-4046
▁symbol	-4047
generate	-4048
sequences	-4049
dist	-4050
▁pan	-4051
▁retry	-4052
▁wrapper	-4053
("\	-4054
▁ast	-4055
▁sax	-4056
remaining	-4057
▁systemexception	-4058
ark	-4059
redstatement	-4060
▁rows	-4061
▁seq	-4062
asstring	-4063
alth	-4064
▁platform	-4065
▁charsequence	-4066
--------	-4067
▁move	-4068
datatype	-4069
classifier	-4070
▁kaleoclasspk	-4071
acc	-4072
▁title	-4073
uted	-4074
▁menu	-4075
serialize	-4076
▁indicates	-4077
unsupported	-4078
getabsolutepath	-4079
2;	-4080
▁tool	-4081
board	-4082
ategor	-4083
▁images	-4084
declared	-4085
▁deletes	-4086
compareto	-4087
▁visit	-4088
▁indices	-4089
mappings	-4090
▁owner	-4091
▁linkedlist	-4092
ho	-4093
▁lin	-4094
retry	-4095
▁rate	-4096
charset	-4097
▁ui	-4098
ceed	-4099
▁take	-4100
servers	-4101
▁2;	-4102
ours	-4103
▁cmd	-4104
▁heap	-4105
▁subject	-4106
components	-4107
servletrequest	-4108
▁sa	-4109
eper	-4110
▁gen	-4111
completed	-4112
workspace	-4113
addresses	-4114
=0;	-4115
ynchronous	-4116
truntrackchange	-4117
lank	-4118
rows	-4119
▁pixel	-4120
▁missing	-4121
simplename	-4122
wt	-4123
slot	-4124
allback	-4125
assignable	-4126
download	-4127
▁place	-4128
existing	-4129
▁ignored	-4130
▁sim	-4131
▁optim	-4132
ilt	-4133
▁failure	-4134
getoption	-4135
6,	-4136
▁share	-4137
oneddatetime	-4138
▁timer	-4139
refresh	-4140
units	-4141
copyof	-4142
▁encode	-4143
▁quater	-4144
filepath	-4145
▁obtains	-4146
bad	-4147
▁answ	-4148
▁dialog	-4149
otask	-4150
tuple	-4151
▁plus	-4152
stride	-4153
packages	-4154
writable	-4155
ifpresent	-4156
▁necessary	-4157
▁returning	-4158
▁ok	-4159
ponge	-4160
generic	-4161
requency	-4162
arraycopy	-4163
▁progress	-4164
seencounter	-4165
getattribute	-4166
."	-4167
video	-4168
objects	-4169
structure	-4170
▁quaternion	-4171
vec	-4172
filet	-4173
exchange	-4174
▁inte	-4175
▁reach	-4176
forname	-4177
▁export	-4178
ui	-4179
00;	-4180
bed	-4181
▁lower	-4182
▁filesystem	-4183
▁special	-4184
▁transformation	-4185
gt	-4186
▁vide	-4187
havior	-4188
ofyear	-4189
ito	-4190
week	-4191
▁spark	-4192
▁staff	-4193
▁automat	-4194
▁strategy	-4195
▁larg	-4196
▁runs	-4197
compar	-4198
origin	-4199
mediatype	-4200
▁category	-4201
statistics	-4202
secre	-4203
suffix	-4204
rm	-4205
▁negative	-4206
▁were	-4207
▁those	-4208
strings	-4209
question	-4210
statuses	-4211
▁iso	-4212
ainter	-4213
▁ingest	-4214
constant	-4215
kit	-4216
docs	-4217
▁1000	-4218
utures	-4219
▁buffers	-4220
clare	-4221
▁edge	-4222
stringutils	-4223
▁"\	-4224
inode	-4225
▁your	-4226
evaluation	-4227
ian	-4228
unnel	-4229
▁sink	-4230
▁flush	-4231
producer	-4232
unmodifiable	-4233
concat	-4234
android	-4235
sis	-4236
arning	-4237
schedul	-4238
clusters	-4239
newvalue	-4240
registration	-4241
agr	-4242
▁(!(	-4243
▁ele	-4244
▁let	-4245
ading	-4246
forward	-4247
coord	-4248
ilability	-4249
ness	-4250
itude	-4251
under	-4252
▁criter	-4253
runnable	-4254
▁annotations	-4255
("{	-4256
acle	-4257
coordin	-4258
formats	-4259
chronology	-4260
semb	-4261
ording	-4262
rowser	-4263
etaddress	-4264
tablename	-4265
delta	-4266
settext	-4267
▁parses	-4268
loadbalancer	-4269
▁kaleoclassname	-4270
nanos	-4271
using	-4272
assand	-4273
texist	-4274
▁candidate	-4275
▁assertnotnull	-4276
ply	-4277
drop	-4278
mise	-4279
chars	-4280
clone	-4281
▁pred	-4282
primary	-4283
▁effect	-4284
bs	-4285
ilar	-4286
ints	-4287
qname	-4288
imation	-4289
▁vert	-4290
▁capacity	-4291
▁hostname	-4292
[0].	-4293
▁site	-4294
andler	-4295
▁monitor	-4296
▁blocking	-4297
getsimplename	-4298
cut	-4299
(2	-4300
faul	-4301
mac	-4302
mand	-4303
signed	-4304
xx	-4305
cop	-4306
make	-4307
▁fire	-4308
▁might	-4309
▁assertfalse	-4310
cu	-4311
▁jo	-4312
vars	-4313
usage	-4314
started	-4315
fileversion	-4316
▁der	-4317
▁days	-4318
ess	-4319
sive	-4320
reater	-4321
=");	-4322
serviceexception	-4323
▁rs	-4324
")).	-4325
▁immediate	-4326
cost	-4327
reduce	-4328
▁allux	-4329
▁decor	-4330
▁needs	-4331
catalog	-4332
quater	-4333
visitor	-4334
▁relative	-4335
ca	-4336
ams	-4337
▁(_	-4338
setup	-4339
getlocal	-4340
▁visible	-4341
▁supplier	-4342
aker	-4343
prim	-4344
▁editor	-4345
▁elastic	-4346
providers	-4347
initialize	-4348
▁fs	-4349
pring	-4350
▁trust	-4351
receiver	-4352
uplicate	-4353
▁consist	-4354
▁seed	-4355
▁bitmap	-4356
▁reflection	-4357
declaration	-4358
▁invocation	-4359
ony	-4360
▁geo	-4361
spaces	-4362
▁shape	-4363
▁upper	-4364
getcontext	-4365
sample	-4366
parts	-4367
▁swap	-4368
▁require	-4369
quaternion	-4370
storeentry	-4371
1;	-4372
late	-4373
▁rules	-4374
manifest	-4375
▁ca	-4376
▁replic	-4377
useragent	-4378
+"	-4379
▁conven	-4380
50	-4381
▁submit	-4382
▁equivalent	-4383
igr	-4384
priate	-4385
▁encoded	-4386
▁absolute	-4387
securitygroup	-4388
kc	-4389
avig	-4390
clientbuilder	-4391
dao	-4392
▁stor	-4393
▁assume	-4394
defaults	-4395
direction	-4396
rt	-4397
▁messag	-4398
▁directly	-4399
▁ts	-4400
analy	-4401
▁click	-4402
▁force	-4403
▁comparison	-4404
▁decl	-4405
onodeid	-4406
nod	-4407
mean	-4408
▁fore	-4409
revision	-4410
dst	-4411
ones	-4412
▁"");	-4413
encode	-4414
▁deleg	-4415
▁inode	-4416
cleanxml	-4417
▁authentic	-4418
threads	-4419
▁selector	-4420
pkg	-4421
rules	-4422
▁closure	-4423
▁cp	-4424
same	-4425
▁flux	-4426
▁font	-4427
ildcard	-4428
payment	-4429
features	-4430
getcontent	-4431
gh	-4432
tle	-4433
tok	-4434
ulk	-4435
▁ker	-4436
▁answer	-4437
▁enable	-4438
▁inside	-4439
▁gateway	-4440
isassignable	-4441
alt	-4442
dto	-4443
hashset	-4444
▁according	-4445
addr	-4446
encoder	-4447
▁proper	-4448
emptymap	-4449
threshold	-4450
oft	-4451
invok	-4452
joint	-4453
▁legacy	-4454
stage	-4455
fit	-4456
uint	-4457
ffset	-4458
ingexception	-4459
▁appropriate	-4460
nativ	-4461
▁fork	-4462
getblock	-4463
iase	-4464
▁direc	-4465
standard	-4466
getannotation	-4467
▁dist	-4468
checker	-4469
▁immutablemap	-4470
▁),	-4471
▁mutable	-4472
dx	-4473
rand	-4474
functions	-4475
parametergroup	-4476
supportedproduct	-4477
area	-4478
paralle	-4479
▁mapped	-4480
oriz	-4481
▁err	-4482
▁align	-4483
ingclass	-4484
lifecycle	-4485
▁annotated	-4486
attemp	-4487
▁segments	-4488
yg	-4489
▁lat	-4490
getall	-4491
tolist	-4492
telement	-4493
▁timezone	-4494
kcn	-4495
lip	-4496
ural	-4497
retrie	-4498
ils	-4499
bet	-4500
kcpk	-4501
getindex	-4502
previous	-4503
getentrymap	-4504
titem	-4505
▁renderer	-4506
▁overr	-4507
▁origin	-4508
▁fn	-4509
mplat	-4510
▁core	-4511
▁workspace	-4512
cedure	-4513
domainname	-4514
▁checkpoint	-4515
▁exceptions	-4516
endpointbuilder	-4517
':	-4518
<?>)	-4519
itter	-4520
relative	-4521
▁invoked	-4522
▁connected	-4523
▁less	-4524
getlong	-4525
gl	-4526
edges	-4527
▁months	-4528
▁fieldname	-4529
[]>	-4530
ilies	-4531
schemas	-4532
▁allows	-4533
▁received	-4534
peat	-4535
editor	-4536
▁receiver	-4537
▁1.	-4538
▁[]	-4539
▁expand	-4540
▁methodname	-4541
anded	-4542
▁even	-4543
enable	-4544
versions	-4545
▁transfer	-4546
tial	-4547
▁rotate	-4548
▁threads	-4549
todo	-4550
▁backup	-4551
aving	-4552
dictionary	-4553
▁ic	-4554
pred	-4555
>>>>()	-4556
scaling	-4557
decode	-4558
▁weights	-4559
▁validator	-4560
▁serialized	-4561
unique	-4562
verter	-4563
getconnection	-4564
▁dqy	-4565
atial	-4566
require	-4567
▁resultset	-4568
oted	-4569
bigdecimal	-4570
httprequest	-4571
preferences	-4572
-0	-4573
apache	-4574
creator	-4575
▁df	-4576
datab	-4577
orizont	-4578
isassignablefrom	-4579
ouri	-4580
▁flags	-4581
▁retrieves	-4582
permissions	-4583
caches	-4584
luster	-4585
getitem	-4586
machine	-4587
candidate	-4588
oot	-4589
▁login	-4590
hashcode	-4591
andidates	-4592
fill	-4593
▁marker	-4594
▁identity	-4595
▁tok	-4596
▁nb	-4597
configure	-4598
▁evaluation	-4599
nex	-4600
swap	-4601
vileg	-4602
▁exit	-4603
getint	-4604
families	-4605
▁mult	-4606
streams	-4607
creation	-4608
currentthread	-4609
au	-4610
fla	-4611
isto	-4612
jdbc	-4613
▁2);	-4614
licies	-4615
▁wrapped	-4616
schedulers	-4617
▁offsetdatetime	-4618
activ	-4619
cookie	-4620
▁happen	-4621
▁calendrical	-4622
alk	-4623
▁stats	-4624
modifier	-4625
▁receive	-4626
▁processed	-4627
}}	-4628
bindings	-4629
▁linkedhashmap	-4630
sfor	-4631
▁cop	-4632
terms	-4633
▁fill	-4634
contin	-4635
▁angle	-4636
▁pp	-4637
▁def	-4638
codec	-4639
epoch	-4640
▁scre	-4641
▁createc	-4642
▁waiting	-4643
codesnippet	-4644
****	-4645
▁connections	-4646
mult	-4647
quire	-4648
transport	-4649
isset	-4650
▁jdbc	-4651
aggregation	-4652
geo	-4653
▁pi	-4654
orite	-4655
putall	-4656
▁formatter	-4657
▁defaultvalue	-4658
keystore	-4659
connections	-4660
serialization	-4661
▁relationship	-4662
ough	-4663
depth	-4664
oauth	-4665
▁know	-4666
▁blocks	-4667
analyzer	-4668
sal	-4669
bus	-4670
();)	-4671
▁bal	-4672
encms	-4673
latch	-4674
removed	-4675
sources	-4676
▁2,	-4677
icat	-4678
▁zoo	-4679
▁sslconfig	-4680
ai	-4681
users	-4682
▁issue	-4683
bundler	-4684
itespace	-4685
▁registers	-4686
!=	-4687
blem	-4688
▁lazy	-4689
center	-4690
ective	-4691
ulename	-4692
entityid	-4693
▁delegate	-4694
stancetoken	-4695
ypair	-4696
queries	-4697
sth	-4698
tls	-4699
▁including	-4700
▁stringbundler	-4701
regex	-4702
▁dst	-4703
▁means	-4704
vere	-4705
▁callable	-4706
▁mt	-4707
▁mid	-4708
micro	-4709
▁suffix	-4710
observable	-4711
definitions	-4712
[][]	-4713
localdate	-4714
scheduler	-4715
dependencies	-4716
ypo	-4717
blogs	-4718
▁valu	-4719
expect	-4720
jector	-4721
publish	-4722
▁cb	-4723
▁box	-4724
▁testing	-4725
annotated	-4726
getmethod	-4727
)),	-4728
fol	-4729
binder	-4730
instanti	-4731
▁parsing	-4732
allocation	-4733
xmlelement	-4734
iouri	-4735
▁credential	-4736
uni	-4737
leaf	-4738
stax	-4739
render	-4740
▁providers	-4741
arri	-4742
iness	-4743
▁transport	-4744
***	-4745
wer	-4746
months	-4747
special	-4748
▁executorservice	-4749
years	-4750
▁queries	-4751
configs	-4752
▁pkg	-4753
▁cost	-4754
▁impl	-4755
itable	-4756
numberof	-4757
aproperty	-4758
graphnode	-4759
compressed	-4760
datasourcefrom	-4761
▁too	-4762
returns	-4763
collectors	-4764
visibility	-4765
getresponse	-4766
gettime	-4767
func	-4768
▁inser	-4769
indexed	-4770
overlay	-4771
▁actions	-4772
▁disable	-4773
servation	-4774
econnection	-4775
getp	-4776
▁expressions	-4777
▁registration	-4778
urface	-4779
▁alias	-4780
ertificat	-4781
▁mediatype	-4782
▁aggregation	-4783
0.	-4784
▁dro	-4785
visor	-4786
▁matched	-4787
▁manifest	-4788
ider	-4789
>());	-4790
getlast	-4791
▁proces	-4792
):	-4793
lark	-4794
getmax	-4795
lenode	-4796
break	-4797
▁fails	-4798
ordinal	-4799
▁merged	-4800
multipart	-4801
▁getdefault	-4802
▁es	-4803
▁mean	-4804
compile	-4805
▁install	-4806
▁stringutils	-4807
▁bad	-4808
sired	-4809
parsed	-4810
▁..	-4811
udent	-4812
fromurl	-4813
loading	-4814
▁payment	-4815
ffic	-4816
istogram	-4817
▁threshold	-4818
gers	-4819
decor	-4820
iment	-4821
outils	-4822
▁declar	-4823
feedback	-4824
▁remaining	-4825
dimage	-4826
extract	-4827
ordered	-4828
contents	-4829
ned	-4830
rip	-4831
curve	-4832
▁dead	-4833
blocks	-4834
▁proto	-4835
▁typed	-4836
getproperties	-4837
▁est	-4838
▁oper	-4839
pointer	-4840
recision	-4841
▁handles	-4842
adoc	-4843
ipher	-4844
sleep	-4845
associ	-4846
encryp	-4847
tracker	-4848
transfer	-4849
sessionid	-4850
isdirectory	-4851
authorization	-4852
plat	-4853
▁detect	-4854
drawable	-4855
since	-4856
othrow	-4857
▁lines	-4858
contract	-4859
▁|=	-4860
notexist	-4861
▁observer	-4862
staxunmarshaller	-4863
sumed	-4864
execut	-4865
▁features	-4866
conversion	-4867
milliseconds	-4868
consist	-4869
getfile	-4870
▁>>>	-4871
▁cookie	-4872
topology	-4873
▁dothrow	-4874
deploy	-4875
▁propag	-4876
ina	-4877
nodeid	-4878
▁vaultbaseurl	-4879
opt	-4880
free	-4881
iate	-4882
stable	-4883
getdata	-4884
managed	-4885
▁managed	-4886
▁functions	-4887
boot	-4888
updated	-4889
▁loading	-4890
▁structure	-4891
▁cmsexception	-4892
▁sl	-4893
▁own	-4894
optim	-4895
andnext	-4896
▁against	-4897
▁getvalue	-4898
calendrical	-4899
▁completion	-4900
▁immutableset	-4901
ares	-4902
coun	-4903
save	-4904
iw	-4905
00,	-4906
enar	-4907
ummy	-4908
▁asc	-4909
decoder	-4910
getcause	-4911
processed	-4912
newhashmap	-4913
htable	-4914
elastic	-4915
▁img	-4916
offer	-4917
labels	-4918
▁oauth	-4919
journal	-4920
▁declared	-4921
tokensequences	-4922
formatexception	-4923
yc	-4924
▁"\"	-4925
focus	-4926
▁satis	-4927
▁encryp	-4928
prevandnext	-4929
does	-4930
eset	-4931
variables	-4932
▁bootstrap	-4933
fak	-4934
▁az	-4935
▁fac	-4936
▁slice	-4937
agetype	-4938
▁history	-4939
▁getall	-4940
▁getname	-4941
ientation	-4942
implement	-4943
afka	-4944
▁direction	-4945
dn	-4946
▁card	-4947
▁takes	-4948
▁datatype	-4949
ined	-4950
▁/**	-4951
▁nor	-4952
ignite	-4953
▁indent	-4954
▁immediately	-4955
▁asynchronous	-4956
>(_	-4957
▁abo	-4958
▁grad	-4959
▁popup	-4960
represent	-4961
▁producer	-4962
dp	-4963
keeper	-4964
▁above	-4965
▁separ	-4966
requested	-4967
vc	-4968
elem	-4969
devices	-4970
matched	-4971
nativetype	-4972
>>(	-4973
unic	-4974
etask	-4975
▁locked	-4976
▁resulting	-4977
▁tablename	-4978
typed	-4979
sequenc	-4980
▁indexed	-4981
▁executes	-4982
econverter	-4983
got	-4984
paint	-4985
advance	-4986
createc	-4987
▁treemap	-4988
▁criteria	-4989
▁1]	-4990
ever	-4991
stro	-4992
blank	-4993
▁decode	-4994
invertible	-4995
▁interceptor	-4996
23	-4997
cons	-4998
▁did	-4999
jobid	-5000
▁whose	-5001
primkey	-5002
▁screen	-5003
▁counters	-5004
▁collector	-5005
charsequence	-5006
▁zoneddatetime	-5007
eth	-5008
}{@	-5009
▁nod	-5010
coming	-5011
▁native	-5012
handlers	-5013
logevent	-5014
▁product	-5015
▁metaproperty	-5016
offsetdatetime	-5017
tile	-5018
stone	-5019
times	-5020
getstate	-5021
canonical	-5022
returnvalue	-5023
▁localdatetime	-5024
prob	-5025
fromp	-5026
course	-5027
▁adding	-5028
packagename	-5029
▁returntype	-5030
img	-5031
olds	-5032
metry	-5033
▁scheme	-5034
flux	-5035
into	-5036
volat	-5037
▁later	-5038
minimum	-5039
prepare	-5040
▁restore	-5041
ni	-5042
export	-5043
▁factor	-5044
platform	-5045
getcolumn	-5046
getversion	-5047
▁references	-5048
cir	-5049
usp	-5050
stre	-5051
infos	-5052
ively	-5053
ential	-5054
▁packages	-5055
6/	-5056
▁md	-5057
▁})	-5058
oracle	-5059
matching	-5060
▁dynamic	-5061
▁greater	-5062
▁temporary	-5063
stancetokenid	-5064
oinstancetokenid	-5065
nb	-5066
(2,	-5067
▁library	-5068
▁compiler	-5069
background	-5070
fakewriter	-5071
▁scheduled	-5072
▁bufferedreader	-5073
sin	-5074
allet	-5075
await	-5076
▁week	-5077
cessor	-5078
▁assum	-5079
▁exact	-5080
▁deploy	-5081
▁mi	-5082
▁"/"	-5083
▁>}}	-5084
adoop	-5085
▁<}{@	-5086
install	-5087
percent	-5088
xmlelementdecl	-5089
mant	-5090
▁well	-5091
getstart	-5092
▁conversion	-5093
posed	-5094
fraction	-5095
authentic	-5096
dexecutor	-5097
▁external	-5098
▁servicename	-5099
adow	-5100
tier	-5101
▁eval	-5102
▁panel	-5103
getcount	-5104
▁apiversion	-5105
writest	-5106
▁advance	-5107
▁getboolean	-5108
▁cast	-5109
echange	-5110
accessible	-5111
allen	-5112
chema	-5113
calcul	-5114
▁cance	-5115
▁written	-5116
heartbeat	-5117
adjustment	-5118
▁concurrent	-5119
fx	-5120
▁""	-5121
staff	-5122
getfield	-5123
orizontal	-5124
▁adjuster	-5125
▁creation	-5126
resolution	-5127
▁particular	-5128
▁hel	-5129
seqno	-5130
ecount	-5131
▁isset	-5132
▁performs	-5133
rpc	-5134
")));	-5135
imate	-5136
consume	-5137
▁setter	-5138
commands	-5139
▁represents	-5140
/{	-5141
proc	-5142
trigger	-5143
emanager	-5144
▁positive	-5145
▁topology	-5146
(((	-5147
sponge	-5148
matical	-5149
▁listen	-5150
extractor	-5151
▁disabled	-5152
unexpected	-5153
fy	-5154
("-	-5155
▁?.	-5156
▁pd	-5157
▁ps	-5158
uced	-5159
anity	-5160
▁datab	-5161
22;	-5162
dap	-5163
adjuster	-5164
▁10	-5165
▁sco	-5166
recur	-5167
▁htmltree	-5168
▁converted	-5169
schedulersupport	-5170
▁mem	-5171
fficient	-5172
received	-5173
setvalue	-5174
▁sources	-5175
dependent	-5176
({	-5177
flo	-5178
1));	-5179
hode	-5180
▁cls	-5181
▁safe	-5182
bootstrap	-5183
processingml	-5184
exec	-5185
mbed	-5186
images	-5187
without	-5188
iso	-5189
/200	-5190
tist	-5191
ditem	-5192
concept	-5193
lemented	-5194
▁generator	-5195
▁dependencies	-5196
};	-5197
mis	-5198
▁att	-5199
▁syn	-5200
▁sequ	-5201
▁jobid	-5202
external	-5203
partitions	-5204
▁transformer	-5205
▁anno	-5206
ipient	-5207
ertypes	-5208
variant	-5209
sb	-5210
por	-5211
rdd	-5212
▁";	-5213
▁16	-5214
stored	-5215
dlobject	-5216
▁defaults	-5217
wordprocessingml	-5218
pha	-5219
▁stax	-5220
▁implements	-5221
1_	-5222
=\"	-5223
▁eh	-5224
nested	-5225
▁cases	-5226
already	-5227
hasmore	-5228
emptylist	-5229
ocketaddress	-5230
vered	-5231
▁qual	-5232
▁below	-5233
training	-5234
▁compile	-5235
▁fileinputstream	-5236
(5	-5237
▁dom	-5238
▁sig	-5239
▁machine	-5240
▁ioutils	-5241
minus	-5242
wered	-5243
/2006/	-5244
openxml	-5245
deviceid	-5246
requests	-5247
projection	-5248
openxmlformats	-5249
utc	-5250
zoo	-5251
ypoint	-5252
enticate	-5253
del	-5254
▁aff	-5255
tension	-5256
▁bounds	-5257
stributed	-5258
▁behavior	-5259
▁"."	-5260
aname	-5261
ledge	-5262
logging	-5263
setname	-5264
▁representing	-5265
xer	-5266
extra	-5267
▁free	-5268
▁seen	-5269
▁sing	-5270
partic	-5271
served	-5272
getobject	-5273
mbproperties	-5274
dot	-5275
sembly	-5276
getclient	-5277
▁publisher	-5278
▁projection	-5279
reads	-5280
serve	-5281
achines	-5282
attachment	-5283
byid	-5284
ience	-5285
google	-5286
jected	-5287
tables	-5288
▁loads	-5289
callable	-5290
▁gettype	-5291
}");	-5292
▁contained	-5293
▁wordindex	-5294
conditional	-5295
dc	-5296
orum	-5297
deleg	-5298
windows	-5299
wrapped	-5300
jointask	-5301
playlist	-5302
ispayload	-5303
▁evaluate	-5304
relationship	-5305
ov	-5306
getc	-5307
▁actor	-5308
▁sends	-5309
▁words	-5310
changes	-5311
numeric	-5312
▁unsafe	-5313
customxml	-5314
▁httpresponse	-5315
▁pref	-5316
▁parts	-5317
dfs	-5318
jax	-5319
sty	-5320
▁enc	-5321
slist	-5322
▁compat	-5323
docvalues	-5324
▁tagindex	-5325
resourcetype	-5326
pref	-5327
▁cert	-5328
powered	-5329
▁increment	-5330
heap	-5331
chang	-5332
▁btree	-5333
▁streams	-5334
▁primitive	-5335
▁unseencounter	-5336
ags	-5337
▁repla	-5338
setispayload	-5339
setispayloadjson	-5340
</	-5341
gs	-5342
byname	-5343
liance	-5344
encoded	-5345
valueno	-5346
▁addresses	-5347
ationexception	-5348
▁dqz	-5349
(0));	-5350
<?>[]	-5351
small	-5352
subquery	-5353
anization	-5354
▁executed	-5355
▁transition	-5356
*",	-5357
noc	-5358
clas	-5359
astoken	-5360
▁widget	-5361
vaultbaseurl	-5362
▁suc	-5363
inity	-5364
▁adap	-5365
executorservice	-5366
▁columnfamilies	-5367
▁due	-5368
▁mac	-5369
ender	-5370
links	-5371
trees	-5372
▁mask	-5373
cepted	-5374
expiry	-5375
stoken	-5376
toblocking	-5377
)(	-5378
see	-5379
criter	-5380
destroy	-5381
▁radius	-5382
▁interrup	-5383
maps	-5384
▁reading	-5385
modifiers	-5386
▁dictionary	-5387
simpl	-5388
router	-5389
▁useful	-5390
resented	-5391
valuetype	-5392
▁supports	-5393
illegalarg	-5394
▁altern	-5395
▁volume	-5396
movefrom	-5397
framework	-5398
computeifpresent	-5399
fast	-5400
▁100	-5401
▁isn	-5402
facet	-5403
getcomponent	-5404
}",	-5405
▁sec	-5406
otimer	-5407
updates	-5408
▁course	-5409
▁serialize	-5410
initialized	-5411
localsecondary	-5412
states	-5413
assandra	-5414
▁iterate	-5415
getparameter	-5416
spongepowered	-5417
("");	-5418
alert	-5419
alled	-5420
allux	-5421
ceeded	-5422
health	-5423
severe	-5424
▁divide	-5425
▁ranges	-5426
bestentry	-5427
glob	-5428
veto	-5429
▁schem	-5430
▁strip	-5431
avigation	-5432
transition	-5433
aryfunction	-5434
▁previously	-5435
▁authorization	-5436
'.	-5437
tc	-5438
layers	-5439
▁automatically	-5440
▁serialization	-5441
("\\	-5442
launch	-5443
▁lease	-5444
asserttrue	-5445
threadpool	-5446
▁classifier	-5447
5.	-5448
joo	-5449
rat	-5450
dirs	-5451
▁gad	-5452
▁expiry	-5453
▁rectangle	-5454
(4	-5455
▁ws	-5456
audio	-5457
iases	-5458
refer	-5459
caller	-5460
coding	-5461
toffset	-5462
▁builds	-5463
▁traver	-5464
cachewith	-5465
03	-5466
hit	-5467
▁links	-5468
timezone	-5469
)",	-5470
peek	-5471
▁[{}	-5472
▁checked	-5473
▁handling	-5474
▁provides	-5475
▁-=	-5476
quote	-5477
▁leaf	-5478
getnext	-5479
▁windows	-5480
▁documents	-5481
▁ns	-5482
getx	-5483
ygon	-5484
cloud	-5485
pixel	-5486
gethost	-5487
▁'\	-5488
jooq	-5489
lide	-5490
▁utf	-5491
[0]);	-5492
osome	-5493
outof	-5494
where	-5495
▁evic	-5496
notify	-5497
▁video	-5498
,"	-5499
▁getc	-5500
runner	-5501
123	-5502
repo	-5503
acing	-5504
ketch	-5505
▁stmt	-5506
torder	-5507
izing	-5508
▁area	-5509
▁round	-5510
delivery	-5511
▁accumul	-5512
nullaryfunction	-5513
metricdefinition	-5514
ecom	-5515
mited	-5516
treenode	-5517
getsource	-5518
getelement	-5519
computeifabsent	-5520
]",	-5521
▁rates	-5522
methode	-5523
▁consume	-5524
anno	-5525
getroot	-5526
resence	-5527
▁mockito	-5528
alignment	-5529
artobject	-5530
servicename	-5531
("[	-5532
▁1));	-5533
constraints	-5534
etsocketaddress	-5535
ral	-5536
issue	-5537
disable	-5538
fire	-5539
propag	-5540
maximum	-5541
allocate	-5542
▁applied	-5543
replaceall	-5544
▁dataframe	-5545
putifabsent	-5546
▁background	-5547
▁calculates	-5548
black	-5549
asures	-5550
▁tables	-5551
frequency	-5552
▁itemstack	-5553
ks	-5554
12;	-5555
▁cn	-5556
pages	-5557
toadd	-5558
native	-5559
particip	-5560
romosome	-5561
▁starttime	-5562
▁ehcachewith	-5563
13	-5564
inher	-5565
mplates	-5566
▁blockid	-5567
ategories	-5568
preferred	-5569
▁contenttype	-5570
--;	-5571
()];	-5572
▁concept	-5573
stoupdate	-5574
attributename	-5575
etr	-5576
ecti	-5577
pawn	-5578
pout	-5579
lastindexof	-5580
▁checkargument	-5581
mx	-5582
hub	-5583
sel	-5584
amel	-5585
sink	-5586
enario	-5587
locked	-5588
▁logic	-5589
nippets	-5590
sastoken	-5591
▁decimal	-5592
prox	-5593
completion	-5594
adj	-5595
ean	-5596
sha	-5597
▁ev	-5598
▁tp	-5599
ager	-5600
▁...	-5601
vileged	-5602
▁computes	-5603
newbuilder	-5604
representation	-5605
servletresponse	-5606
js	-5607
[0],	-5608
like	-5609
▁got	-5610
▁tile	-5611
▁alert	-5612
▁extra	-5613
▁center	-5614
writeendobject	-5615
▁getcertificate	-5616
writestartobject	-5617
dev	-5618
ield	-5619
▁utility	-5620
▁handlers	-5621
runtrackchange	-5622
ctruntrackchange	-5623
arm	-5624
jobs	-5625
▁rank	-5626
▁attrs	-5627
publisher	-5628
alive	-5629
("}");	-5630
sively	-5631
▁delta	-5632
▁journal	-5633
sensitive	-5634
▁et	-5635
▁low	-5636
appid	-5637
arded	-5638
scroll	-5639
reporter	-5640
▁getfirst	-5641
▁serializer	-5642
▁targettype	-5643
02;	-5644
▁":	-5645
ands	-5646
▁arr	-5647
branch	-5648
▁codec	-5649
▁guide	-5650
▁price	-5651
veloper	-5652
escaping	-5653
▁pointer	-5654
parseexception	-5655
elong	-5656
grant	-5657
hello	-5658
▁mule	-5659
velope	-5660
▁drool	-5661
▁embed	-5662
1",	-5663
iph	-5664
rase	-5665
oring	-5666
counts	-5667
▁qualified	-5668
eh	-5669
gray	-5670
▁minus	-5671
deletion	-5672
rotation	-5673
firm	-5674
▁psi	-5675
blockid	-5676
entences	-5677
entities	-5678
requires	-5679
blogsentry	-5680
newarraylist	-5681
▁parallelism	-5682
});	-5683
orel	-5684
aware	-5685
ially	-5686
ystemp	-5687
▁activ	-5688
▁audio	-5689
persistent	-5690
availability	-5691
etypemapping	-5692
localdatetime	-5693
langu	-5694
▁edit	-5695
stores	-5696
▁recogn	-5697
atermark	-5698
geterror	-5699
▁highest	-5700
randindex	-5701
byresource	-5702
propertyname	-5703
acam	-5704
anit	-5705
gate	-5706
yped	-5707
ecode	-5708
conven	-5709
createt	-5710
isvalid	-5711
▁indexes	-5712
▁tachyon	-5713
▁verifies	-5714
▁fx	-5715
▁dns	-5716
amodel	-5717
▁analy	-5718
dynamic	-5719
▁similar	-5720
getheight	-5721
▁biginteger	-5722
oletypemapping	-5723
▁lhs	-5724
▁disk	-5725
agedir	-5726
inputs	-5727
ettings	-5728
finished	-5729
getwidth	-5730
▁filtered	-5731
encryption	-5732
▁getresource	-5733
▁nan	-5734
▁many	-5735
▁material	-5736
getdeclared	-5737
checkargument	-5738
volumerequest	-5739
cuit	-5740
force	-5741
agraph	-5742
indent	-5743
▁shift	-5744
▁units	-5745
▁recent	-5746
▁reverse	-5747
kaleonodeid	-5748
▁executable	-5749
▁milliseconds	-5750
arge	-5751
anted	-5752
▁numeric	-5753
procedure	-5754
▁extended	-5755
▁includes	-5756
[3	-5757
keep	-5758
sourc	-5759
▁console	-5760
▁entities	-5761
▁somet	-5762
counters	-5763
▁initializes	-5764
audi	-5765
argin	-5766
tions	-5767
▁itself	-5768
(){	-5769
aming	-5770
filer	-5771
rence	-5772
typename	-5773
▁applies	-5774
▁finished	-5775
compatible	-5776
▁describes	-5777
▁kaleotask	-5778
▁interfaces	-5779
ewr	-5780
▁eas	-5781
▁training	-5782
methodname	-5783
▁localtime	-5784
▁allocation	-5785
▁!(	-5786
andget	-5787
readable	-5788
maticalrelation	-5789
ao	-5790
▁ce	-5791
room	-5792
▁rpc	-5793
aries	-5794
roles	-5795
paramet	-5796
▁digest	-5797
starting	-5798
▁equalto	-5799
▁prevent	-5800
▁produces	-5801
▁workflow	-5802
▁framework	-5803
▁hashtable	-5804
servicemethod	-5805
oic	-5806
(2);	-5807
▁docs	-5808
cluded	-5809
▁built	-5810
▁makes	-5811
tection	-5812
▁metadat	-5813
▁warning	-5814
▁statements	-5815
▁filterscopy	-5816
syn	-5817
grad	-5818
lator	-5819
sible	-5820
letype	-5821
▁xwiki	-5822
padding	-5823
parents	-5824
▁percent	-5825
▁hashcode	-5826
[1];	-5827
evic	-5828
pect	-5829
▁edges	-5830
autoscaling	-5831
▁subscriber	-5832
})	-5833
▁bd	-5834
▁logs	-5835
▁solr	-5836
▁focus	-5837
printer	-5838
replica	-5839
protocols	-5840
thenreturn	-5841
▁pn	-5842
▁pairs	-5843
leaseid	-5844
laz	-5845
▁av	-5846
edit	-5847
▁ear	-5848
erver	-5849
("{");	-5850
negative	-5851
doublevalue	-5852
ylark	-5853
▁care	-5854
getlength	-5855
interrupt	-5856
onlystatuses	-5857
getclassloader	-5858
▁bot	-5859
const	-5860
▁regex	-5861
▁syntax	-5862
policies	-5863
subscriber	-5864
▁described	-5865
booleanvalue	-5866
[2]	-5867
namet	-5868
▁comb	-5869
latest	-5870
compiler	-5871
extensions	-5872
▁instruction	-5873
▁successfully	-5874
instancesrequest	-5875
gad	-5876
sas	-5877
chan	-5878
getin	-5879
uffer	-5880
allerina	-5881
igration	-5882
▁minutes	-5883
aggregator	-5884
getapplication	-5885
okies	-5886
▁router	-5887
▁overflow	-5888
instrument	-5889
▁broadcast	-5890
tobytearray	-5891
abletype	-5892
storeentrycache	-5893
anyid	-5894
▁inner	-5895
mimetype	-5896
▁mappings	-5897
▁comparable	-5898
ansi	-5899
seek	-5900
datap	-5901
▁define	-5902
nowledge	-5903
pathparam	-5904
▁reserved	-5905
▁separator	-5906
ained	-5907
ofmonth	-5908
linkplain	-5909
oper	-5910
▁ioe	-5911
▁volat	-5912
inputformat	-5913
▁enumeration	-5914
='	-5915
▁bug	-5916
stand	-5917
expand	-5918
▁curve	-5919
▁saved	-5920
conflic	-5921
▁represented	-5922
lore	-5923
etypes	-5924
▁entire	-5925
▁exclude	-5926
assertion	-5927
getconfig	-5928
▁determines	-5929
▁ft	-5930
most	-5931
quiet	-5932
▁made	-5933
▁micro	-5934
▁httpheaders	-5935
▁performance	-5936
ocument	-5937
recover	-5938
fullname	-5939
▁upgrade	-5940
positions	-5941
getsession	-5942
pliterator	-5943
100	-5944
▁sha	-5945
▁trade	-5946
▁related	-5947
eventsource	-5948
bum	-5949
▁")	-5950
ighb	-5951
▁-1,	-5952
▁hit	-5953
▁uris	-5954
ention	-5955
▁pstmt	-5956
asetype	-5957
counting	-5958
references	-5959
▁overridden	-5960
▁getinstance	-5961
pls	-5962
ptb	-5963
▁fl	-5964
theme	-5965
templat	-5966
hierarchy	-5967
▁indexsrc	-5968
▁chronology	-5969
otal	-5970
ypath	-5971
verage	-5972
▁outer	-5973
unequal	-5974
scheduled	-5975
▁sensitivity	-5976
fav	-5977
lect	-5978
udit	-5979
cepts	-5980
faile	-5981
(".*",	-5982
spector	-5983
blobclient	-5984
▁singleton	-5985
emon	-5986
nano	-5987
▁mut	-5988
logic	-5989
linked	-5990
handles	-5991
activate	-5992
channels	-5993
▁matchers	-5994
expiration	-5995
processors	-5996
▁repositoryid	-5997
▁js	-5998
insn	-5999
▁ptb	-6000
shake	-6001
▁room	-6002
())));	-6003
▁black	-6004
keywords	-6005
patterns	-6006
anitycheck	-6007
convention	-6008
statuscode	-6009
saf	-6010
▁();	-6011
otime	-6012
▁indic	-6013
▁playback	-6014
▁candidates	-6015
alf	-6016
ufs	-6017
▁vars	-6018
("")).	-6019
▁maybe	-6020
▁prior	-6021
written	-6022
▁intern	-6023
▁spring	-6024
produces	-6025
cfg	-6026
jor	-6027
inct	-6028
▁sas	-6029
xecutor	-6030
aproject	-6031
▁article	-6032
additional	-6033
▁explicitly	-6034
▁persistent	-6035
▁successful	-6036
che	-6037
sib	-6038
rank	-6039
▁ise	-6040
▁ufs	-6041
urable	-6042
▁await	-6043
related	-6044
▁regular	-6045
▁routing	-6046
broadcast	-6047
▁clusters	-6048
blobasyncclient	-6049
abean	-6050
chord	-6051
unused	-6052
reatment	-6053
▁locator	-6054
▁exported	-6055
▁correctly	-6056
▁convenience	-6057
▁2.	-6058
▁branch	-6059
▁snippet	-6060
▁checking	-6061
▁authenticated	-6062
mono	-6063
shal	-6064
▁tim	-6065
▁binder	-6066
readonly	-6067
▁encoder	-6068
▁futures	-6069
▁plugins	-6070
▁analyzer	-6071
getconfiguration	-6072
bulk	-6073
kiti	-6074
▁cfg	-6075
▁0.0;	-6076
ascript	-6077
closing	-6078
weights	-6079
▁literal	-6080
uppercase	-6081
▁composite	-6082
▁jsonarray	-6083
specialized	-6084
2(	-6085
sco	-6086
sent	-6087
▁cir	-6088
ances	-6089
descr	-6090
rofit	-6091
▁resolution	-6092
modifiedsince	-6093
▁specification	-6094
▁curr	-6095
▁roll	-6096
geturl	-6097
▁hours	-6098
thelper	-6099
▁permit	-6100
▁sections	-6101
compression	-6102
fileversionid	-6103
▁ten	-6104
▁hook	-6105
rerror	-6106
▁millis	-6107
assertthat	-6108
agn	-6109
ste	-6110
hour	-6111
▁ldap	-6112
▁mong	-6113
backoff	-6114
redirect	-6115
gettarget	-6116
comparison	-6117
instructor	-6118
management	-6119
termination	-6120
▁implemented	-6121
may	-6122
▁tc	-6123
▁sourc	-6124
▁cleanup	-6125
▁desired	-6126
▁hierarchy	-6127
nd	-6128
▁bl	-6129
samp	-6130
icomp	-6131
clusion	-6132
▁expanded	-6133
superclass	-6134
▁compilation	-6135
';	-6136
qty	-6137
▁ensu	-6138
▁wrong	-6139
continu	-6140
▁appear	-6141
▁writing	-6142
getoutput	-6143
▁occurred	-6144
workspaces	-6145
displayname	-6146
▁management	-6147
▁tb	-6148
▁jod	-6149
▁sug	-6150
ataset	-6151
gestion	-6152
▁clears	-6153
lastmodified	-6154
bag	-6155
eval	-6156
hosts	-6157
atable	-6158
▁years	-6159
upgrade	-6160
▁actually	-6161
initializer	-6162
▁instantiate	-6163
▁__	-6164
▁gue	-6165
legacy	-6166
signal	-6167
getservice	-6168
mut	-6169
aper	-6170
onymo	-6171
astext	-6172
declare	-6173
secrets	-6174
tagname	-6175
▁getkey	-6176
ransaction	-6177
▁bestentry	-6178
▁elasticsearch	-6179
cam	-6180
divid	-6181
inser	-6182
slice	-6183
▁concat	-6184
buffered	-6185
aprovider	-6186
▁serializable	-6187
yntaxexception	-6188
peak	-6189
ather	-6190
▁choo	-6191
▁coord	-6192
▁xpath	-6193
cluding	-6194
▁destroy	-6195
jsonobject	-6196
▁getcurrent	-6197
lon	-6198
▁dot	-6199
restr	-6200
secure	-6201
▁epoch	-6202
▁bitset	-6203
getsystem	-6204
▁included	-6205
interactions	-6206
urlconnection	-6207
odb	-6208
▁getid	-6209
▁zoneid	-6210
keyvalue	-6211
getserver	-6212
nexttoken	-6213
▁em	-6214
▁fp	-6215
aven	-6216
▁beam	-6217
▁stores	-6218
mid	-6219
▁nums	-6220
bridge	-6221
injection	-6222
resourcename	-6223
cc	-6224
gety	-6225
▁den	-6226
▁trig	-6227
iphers	-6228
▁chord	-6229
equalto	-6230
econtain	-6231
▁compact	-6232
containers	-6233
compareandset	-6234
cmd	-6235
▁12	-6236
▁rele	-6237
▁tier	-6238
echeck	-6239
qualto	-6240
referrer	-6241
▁reached	-6242
dimensions	-6243
executable	-6244
▁assignment	-6245
specification	-6246
hi	-6247
cnt	-6248
spot	-6249
izers	-6250
▁stage	-6251
machines	-6252
retrofit	-6253
▁embedded	-6254
annotationtype	-6255
▁pagediterable	-6256
▁parameterized	-6257
1(	-6258
pu	-6259
den	-6260
mos	-6261
▁hi	-6262
etext	-6263
▁tail	-6264
▁leave	-6265
▁escape	-6266
▁series	-6267
▁methodhandle	-6268
▁resourceprimkey	-6269
pur	-6270
▁fav	-6271
▁jdk	-6272
antity	-6273
▁monad	-6274
▁populate	-6275
buffersize	-6276
▁unchanged	-6277
▁statistics	-6278
interceptors	-6279
sim	-6280
lements	-6281
▁conflic	-6282
locations	-6283
starttime	-6284
▁compound	-6285
▁setfilters	-6286
boundsexception	-6287
▁assertionerror	-6288
mn	-6289
ism	-6290
serde	-6291
▁doing	-6292
▁locate	-6293
":	-6294
▁ur	-6295
ante	-6296
▁hex	-6297
▁usage	-6298
getnode	-6299
▁fetchby	-6300
returntype	-6301
▁httprequest	-6302
setproperties	-6303
retrofitbuilder	-6304
std	-6305
▁(1	-6306
tick	-6307
▁able	-6308
▁inher	-6309
▁across	-6310
exitvalue	-6311
getlogger	-6312
yproperty	-6313
33	-6314
[1].	-6315
ught	-6316
▁2.0	-6317
ality	-6318
folderid	-6319
▁browser	-6320
▁fallback	-6321
▁revision	-6322
sof	-6323
ecol	-6324
poss	-6325
▁depth	-6326
▁steps	-6327
ansient	-6328
▁leader	-6329
▁listall	-6330
getusername	-6331
replication	-6332
sequencenumber	-6333
(-	-6334
[],	-6335
roov	-6336
popul	-6337
▁trim	-6338
▁xwik	-6339
▁roles	-6340
thandler	-6341
▁attempts	-6342
vl	-6343
ibly	-6344
ablenode	-6345
▁restart	-6346
▁targets	-6347
apiresponse	-6348
iq	-6349
eader	-6350
uniqu	-6351
▁setc	-6352
▁archive	-6353
▁backoff	-6354
▁incoming	-6355
▁keystore	-6356
namespaced	-6357
▁conditions	-6358
sqlexception	-6359
valuenocheck	-6360
▁emp	-6361
▁fam	-6362
▁pow	-6363
minute	-6364
▁chars	-6365
▁pages	-6366
acamole	-6367
multiple	-6368
▁specifies	-6369
capabilities	-6370
->	-6371
++,	-6372
caps	-6373
etty	-6374
▁poll	-6375
▁unic	-6376
▁however	-6377
directories	-6378
▁verifyzero	-6379
('.	-6380
dump	-6381
https	-6382
atural	-6383
bottom	-6384
▁defaul	-6385
▁urls	-6386
orelse	-6387
intents	-6388
▁simply	-6389
specific	-6390
labeltype	-6391
▁aggregate	-6392
▁partitions	-6393
▁propertyname	-6394
▁rx	-6395
sqrt	-6396
uffle	-6397
rimary	-6398
▁caches	-6399
▁opencms	-6400
composite	-6401
duplicate	-6402
removeall	-6403
▁filepath	-6404
▁imageuint	-6405
▁expiration	-6406
55	-6407
▁rand	-6408
▁turn	-6409
▁dummy	-6410
▁incre	-6411
▁kernel	-6412
▁counting	-6413
checkstate	-6414
▁subclasses	-6415
bose	-6416
rift	-6417
ensor	-6418
rates	-6419
▁help	-6420
▁counts	-6421
resultset	-6422
▁alluxiouri	-6423
else	-6424
▁csv	-6425
▁uid	-6426
igher	-6427
▁hour	-6428
▁google	-6429
menuitem	-6430
unsigned	-6431
yperlink	-6432
▁3)	-6433
▁mak	-6434
dirty	-6435
tools	-6436
xpath	-6437
perform	-6438
plugins	-6439
readlock	-6440
▁padding	-6441
resolvers	-6442
resourceid	-6443
parallelism	-6444
getstatuscode	-6445
▁resourcename	-6446
dbparametergroup	-6447
umbn	-6448
▁exec	-6449
▁gray	-6450
mapped	-6451
unsafe	-6452
▁trail	-6453
getport	-6454
▁analyz	-6455
▁getting	-6456
▁spatial	-6457
▁createct	-6458
▁modulefinder	-6459
stit	-6460
atypes	-6461
follow	-6462
ysical	-6463
sibling	-6464
▁leaves	-6465
▁reduce	-6466
▁ratesprovider	-6467
mk	-6468
quick	-6469
trade	-6470
moveto	-6471
▁mount	-6472
▁belong	-6473
▁states	-6474
▁problem	-6475
defaultvalue	-6476
assertnotnull	-6477
configurations	-6478
hits	-6479
lueto	-6480
strip	-6481
▁home	-6482
ofweek	-6483
nextint	-6484
luetooth	-6485
▁painter	-6486
ipaddress	-6487
serviceclient	-6488
)){	-6489
txt	-6490
zer	-6491
atal	-6492
meter	-6493
▁vals	-6494
recogn	-6495
▁azure	-6496
derived	-6497
testing	-6498
▁curren	-6499
▁enough	-6500
▁except	-6501
▁versions	-6502
▁instructor	-6503
basedautoscaling	-6504
*/	-6505
▁"2	-6506
▁sr	-6507
")))	-6508
deps	-6509
lazy	-6510
▁\""	-6511
touri	-6512
leader	-6513
sidered	-6514
ablename	-6515
disabled	-6516
▁variant	-6517
writelock	-6518
statements	-6519
truststore	-6520
▁canonical	-6521
getmetadata	-6522
▁fakewriter	-6523
rw	-6524
▁cas	-6525
▁wik	-6526
▁rang	-6527
▁acces	-6528
▁hosts	-6529
▁promise	-6530
▁calculation	-6531
singletonlist	-6532
----------------	-6533
2));	-6534
fork	-6535
mbda	-6536
▁patch	-6537
▁ready	-6538
▁acquire	-6539
▁httpclient	-6540
▁coordinates	-6541
csv	-6542
chat	-6543
etest	-6544
mbean	-6545
▁cent	-6546
▁hold	-6547
▁works	-6548
preview	-6549
fieldtype	-6550
▁subclass	-6551
▁unmodifiable	-6552
abc	-6553
▁bb	-6554
▁rat	-6555
diffe	-6556
keyid	-6557
▁repo	-6558
▁stub	-6559
modify	-6560
▁"]");	-6561
▁whole	-6562
tractor	-6563
knowledge	-6564
▁preferred	-6565
attributevalue	-6566
ci	-6567
▁"1	-6568
▁mis	-6569
▁glob	-6570
▁scrip	-6571
enddate	-6572
delimiter	-6573
▁*/,	-6574
▁ide	-6575
erange	-6576
minutes	-6577
▁comput	-6578
▁semant	-6579
▁unless	-6580
lorempty	-6581
oritesite	-6582
▁parallel	-6583
').	-6584
conc	-6585
mods	-6586
xpression	-6587
▁numberof	-6588
econtainer	-6589
pipel	-6590
▁dump	-6591
bytype	-6592
areness	-6593
itemstack	-6594
▁wildcard	-6595
fromstring	-6596
▁iteration	-6597
treegraphnode	-6598
sdt	-6599
tld	-6600
▁ra	-6601
▁rt	-6602
hase	-6603
kely	-6604
▁zon	-6605
▁near	-6606
devents	-6607
▁considered	-6608
▁replacement	-6609
domainrequest	-6610
sl	-6611
ike	-6612
was	-6613
▁cc	-6614
ters	-6615
▁kafka	-6616
chedule	-6617
▁family	-6618
dividual	-6619
▁restlet	-6620
publickey	-6621
▁basicdep	-6622
methodexception	-6623
▁'/	-6624
apar	-6625
lege	-6626
▁bund	-6627
▁hint	-6628
vilege	-6629
onymous	-6630
settype	-6631
▁minute	-6632
getheader	-6633
▁commands	-6634
▁saxparser	-6635
▁calculated	-6636
▁zoneoffset	-6637
▁directories	-6638
jsonmarshaller	-6639
ivot	-6640
▁bus	-6641
brace	-6642
ucene	-6643
correct	-6644
▁classnot	-6645
transformer	-6646
kv	-6647
▁-1);	-6648
irical	-6649
getsize	-6650
eventtype	-6651
recordset	-6652
need	-6653
anode	-6654
redit	-6655
example	-6656
injector	-6657
▁treeset	-6658
▁bytesref	-6659
configurer	-6660
dispatcher	-6661
cls	-6662
isol	-6663
engin	-6664
ferenc	-6665
▁along	-6666
▁trying	-6667
compilation	-6668
resourcepath	-6669
serializable	-6670
clicklistener	-6671
▁requirenonnull	-6672
disk	-6673
arante	-6674
▁resolv	-6675
consumed	-6676
▁declare	-6677
▁visitor	-6678
configured	-6679
▁fileclient	-6680
▁getproperty	-6681
▁preferences	-6682
!!	-6683
iam	-6684
cert	-6685
queu	-6686
▁sym	-6687
▁chat	-6688
atomic	-6689
browser	-6690
targets	-6691
assembly	-6692
keyspace	-6693
▁drawable	-6694
nm	-6695
mpp	-6696
ront	-6697
lists	-6698
needed	-6699
configto	-6700
icontext	-6701
interpol	-6702
overflow	-6703
writeitem	-6704
▁customer	-6705
eclassname	-6706
httpclient	-6707
getinputstream	-6708
requestmapping	-6709
targetexception	-6710
2_	-6711
_.	-6712
▁(;	-6713
ells	-6714
▁1).	-6715
▁won	-6716
floor	-6717
getlog	-6718
▁cycle	-6719
▁redis	-6720
inality	-6721
nocache	-6722
scanner	-6723
▁termsenum	-6724
▁forkjointask	-6725
stub	-6726
ware	-6727
averse	-6728
ighbor	-6729
tofile	-6730
▁closes	-6731
compress	-6732
▁complex	-6733
▁feedback	-6734
▁initialization	-6735
2>	-6736
beam	-6737
▁etc	-6738
▁inf	-6739
movet	-6740
apping	-6741
▁paint	-6742
▁longer	-6743
storages	-6744
inetaddress	-6745
▁transactions	-6746
byresourcegroup	-6747
04	-6748
afk	-6749
calls	-6750
maker	-6751
paren	-6752
somet	-6753
wards	-6754
getchild	-6755
▁closing	-6756
▁consider	-6757
▁distribution	-6758
initialization	-6759
microblogsentry	-6760
▁er	-6761
▁gc	-6762
otes	-6763
▁inc	-6764
datal	-6765
▁coun	-6766
▁mime	-6767
▁intro	-6768
graphics	-6769
▁getclass	-6770
addcontent	-6771
authorized	-6772
ensitivities	-6773
implementation	-6774
beans	-6775
▁manag	-6776
getflag	-6777
rollback	-6778
configtor	-6779
listvalue	-6780
▁typename	-6781
▁writable	-6782
▁typically	-6783
httpresponse	-6784
labeltypemapping	-6785
56	-6786
kaa	-6787
merged	-6788
econtrol	-6789
instream	-6790
allocated	-6791
▁imageplus	-6792
▁gl	-6793
asset	-6794
▁good	-6795
llexer	-6796
istrace	-6797
iteroot	-6798
▁maxsize	-6799
endpoints	-6800
▁histogram	-6801
▁injection	-6802
▁normalized	-6803
ula	-6804
▁"_	-6805
logs	-6806
iddle	-6807
defaul	-6808
readline	-6809
▁javadoc	-6810
▁testget	-6811
▁fraction	-6812
consistency	-6813
▁withfilters	-6814
vs	-6815
23;	-6816
-1);	-6817
auss	-6818
help	-6819
raft	-6820
rary	-6821
▁pin	-6822
aclass	-6823
filtered	-6824
notempty	-6825
cancelled	-6826
▁normalize	-6827
istraceenabled	-6828
kaleoclassname	-6829
ah	-6830
("#	-6831
▁opt	-6832
inger	-6833
▁jobs	-6834
▁norm	-6835
▁guess	-6836
console	-6837
offsets	-6838
▁ensures	-6839
▁bindings	-6840
whitespace	-6841
▁debugging	-6842
disposition	-6843
acts	-6844
urls	-6845
docid	-6846
modes	-6847
▁peak	-6848
▁tries	-6849
cleanup	-6850
receive	-6851
reverse	-6852
▁glyphs	-6853
▁please	-6854
compound	-6855
▁anything	-6856
▁interrupted	-6857
actionprofile	-6858
13;	-6859
aid	-6860
getn	-6861
hood	-6862
chase	-6863
peech	-6864
▁lazyp	-6865
promise	-6866
▁elapsed	-6867
▁tokenizer	-6868
03;	-6869
00);	-6870
▁1];	-6871
utter	-6872
agnost	-6873
wildcard	-6874
▁clients	-6875
icomponent	-6876
withsastoken	-6877
(6	-6878
peg	-6879
iding	-6880
ensity	-6881
▁sorts	-6882
classnot	-6883
periment	-6884
▁overlap	-6885
▁guarante	-6886
kaaproject	-6887
atedelement	-6888
organization	-6889
▁attributevalue	-6890
▁"<	-6891
▁uni	-6892
▁asyn	-6893
ailast	-6894
▁depending	-6895
nullorempty	-6896
cas	-6897
opy	-6898
▁ml	-6899
testo	-6900
▁mods	-6901
repeat	-6902
▁maint	-6903
▁touch	-6904
secretitem	-6905
observation	-6906
touppercase	-6907
▁unexpected	-6908
▁querycontext	-6909
mah	-6910
pin	-6911
▁cam	-6912
setype	-6913
ummary	-6914
▁bottom	-6915
▁marked	-6916
pageimpl	-6917
▁caching	-6918
▁general	-6919
▁getuser	-6920
▁satisfy	-6921
rencypair	-6922
modification	-6923
poo	-6924
▁pag	-6925
ascii	-6926
crete	-6927
aperiod	-6928
▁ticket	-6929
▁redirect	-6930
getcanonical	-6931
▁setattribute	-6932
ench	-6933
exact	-6934
roovy	-6935
▁shut	-6936
▁power	-6937
▁small	-6938
futures	-6939
rawling	-6940
▁topics	-6941
setflags	-6942
▁numbers	-6943
▁drllexer	-6944
▁authorize	-6945
▁validates	-6946
("<	-6947
rem	-6948
enew	-6949
getr	-6950
power	-6951
▁keyed	-6952
▁netty	-6953
getbean	-6954
affinity	-6955
▁separate	-6956
nextelement	-6957
▁inetaddress	-6958
linfo	-6959
oices	-6960
▁arch	-6961
bitset	-6962
▁servers	-6963
▁something	-6964
▁httpstatus	-6965
doesnotexist	-6966
▁cmsresource	-6967
metadataentity	-6968
▁'.	-6969
union	-6970
combin	-6971
painter	-6972
keyvault	-6973
▁findbyp	-6974
abeanutils	-6975
getchildren	-6976
▁distributed	-6977
▁recursively	-6978
parametertypes	-6979
recordsrequest	-6980
sr	-6981
trac	-6982
blobs	-6983
built	-6984
▁allocate	-6985
changeevent	-6986
createsnapshot	-6987
4.	-6988
.")	-6989
kni	-6990
▁stem	-6991
▁coder	-6992
▁repeat	-6993
aggregate	-6994
eredimage	-6995
▁referenced	-6996
▁modification	-6997
bd	-6998
dns	-6999
▁vs	-7000
tail	-7001
itypro	-7002
▁preser	-7003
▁question	-7004
instruction	-7005
▁extensions	-7006
quat	-7007
▁0))	-7008
▁solution	-7009
translation	-7010
▁jodabeanutils	-7011
▁lib	-7012
etree	-7013
gable	-7014
thash	-7015
▁explo	-7016
▁unlock	-7017
interest	-7018
mutation	-7019
▁channels	-7020
▁coordinate	-7021
▁orientation	-7022
▁stringtokenizer	-7023
;)	-7024
(0)	-7025
bloc	-7026
▁cli	-7027
uples	-7028
checks	-7029
capture	-7030
documents	-7031
▁mimetype	-7032
▁sessions	-7033
▁runtrackchange	-7034
uals	-7035
cycle	-7036
erole	-7037
tenant	-7038
partial	-7039
errorcode	-7040
provision	-7041
rebalance	-7042
▁addition	-7043
▁sharding	-7044
getcluster	-7045
▁datastore	-7046
▁duplicate	-7047
▁guacamole	-7048
failedexception	-7049
▁\	-7050
pot	-7051
tof	-7052
▁oo	-7053
lots	-7054
▁remain	-7055
rimarykey	-7056
getboolean	-7057
placeholder	-7058
0}	-7059
(1));	-7060
ratch	-7061
▁quoted	-7062
▁wicket	-7063
ancestor	-7064
▁vertical	-7065
serialized	-7066
outexception	-7067
hasmoreelements	-7068
gp	-7069
akt	-7070
▁1))	-7071
claim	-7072
▁fall	-7073
▁stre	-7074
accesst	-7075
itelist	-7076
multimap	-7077
▁numleft	-7078
awareness	-7079
longvalue	-7080
▁numright	-7081
▁patterns	-7082
▁searchstr	-7083
operationid	-7084
generatedclasses	-7085
bb	-7086
▁ti	-7087
adap	-7088
anim	-7089
refs	-7090
vant	-7091
▁(((	-7092
probe	-7093
▁*/);	-7094
newdep	-7095
stroke	-7096
▁joiner	-7097
▁sender	-7098
▁shouldn	-7099
watermark	-7100
sd	-7101
pus	-7102
hrow	-7103
ners	-7104
queued	-7105
▁replay	-7106
sections	-7107
▁capture	-7108
bandwidth	-7109
▁sessionid	-7110
partitionid	-7111
setattribute	-7112
▁chronofield	-7113
tt	-7114
--)	-7115
acl	-7116
oto	-7117
each	-7118
must	-7119
solr	-7120
utput	-7121
analyt	-7122
accumul	-7123
▁asserts	-7124
▁samples	-7125
▁sending	-7126
chromosome	-7127
▁animation	-7128
▁termination	-7129
getattributes	-7130
30	-7131
odes	-7132
peed	-7133
accounts	-7134
▁findbyg	-7135
▁activate	-7136
▁shortcut	-7137
▁intervals	-7138
tagstoupdate	-7139
▁linkedhashset	-7140
certificateitem	-7141
▁documentbuilder	-7142
hr	-7143
jdk	-7144
ung	-7145
wor	-7146
▁"{	-7147
▁3;	-7148
▁lex	-7149
switch	-7150
onerror	-7151
▁tunnel	-7152
asstream	-7153
cmsobject	-7154
▁obtained	-7155
generation	-7156
>>,	-7157
sug	-7158
stem	-7159
abort	-7160
ittle	-7161
pairs	-7162
person	-7163
▁stripe	-7164
▁indexin	-7165
▁summary	-7166
elementat	-7167
marketdata	-7168
▁extracted	-7169
▁recursive	-7170
▁buffersize	-7171
recordsresult	-7172
unmodifiablelist	-7173
ond	-7174
▁"[	-7175
("{}	-7176
asyn	-7177
dead	-7178
ecke	-7179
▁rhs	-7180
ainfo	-7181
views	-7182
▁gram	-7183
marshal	-7184
▁scroll	-7185
▁countby	-7186
▁working	-7187
depfilter	-7188
▁dbobject	-7189
mexception	-7190
▁everything	-7191
gap	-7192
secs	-7193
unct	-7194
▁soy	-7195
cheme	-7196
ecach	-7197
ubscri	-7198
▁basex	-7199
circuit	-7200
sessions	-7201
▁waitfor	-7202
getlocation	-7203
▁authenticate	-7204
transformation	-7205
3);	-7206
xwiki	-7207
dbname	-7208
▁grant	-7209
▁stamp	-7210
inverse	-7211
sclient	-7212
▁inject	-7213
▁signal	-7214
▁logical	-7215
▁attached	-7216
setenabled	-7217
loaderwrite	-7218
cd	-7219
▁":"	-7220
▁tld	-7221
()]);	-7222
resid	-7223
contri	-7224
totype	-7225
▁fixme	-7226
quietly	-7227
▁issuer	-7228
▁visual	-7229
********	-7230
verifier	-7231
▁indexof	-7232
animation	-7233
fieldrule	-7234
▁executing	-7235
▁terminate	-7236
▁accessible	-7237
networkinterface	-7238
gui	-7239
lix	-7240
odat	-7241
▁pot	-7242
fallback	-7243
startdate	-7244
addelement	-7245
protection	-7246
machinescal	-7247
▁getrequest	-7248
fieldreference	-7249
▁jvm	-7250
allery	-7251
getend	-7252
tional	-7253
▁dynam	-7254
ighbors	-7255
instanc	-7256
▁partial	-7257
statechange	-7258
yproperties	-7259
bf	-7260
rea	-7261
aces	-7262
hint	-7263
▁tick	-7264
proces	-7265
▁divis	-7266
callpeer	-7267
▁sortedset	-7268
▁createevent	-7269
contextfactory	-7270
reply	-7271
elasticip	-7272
▁affected	-7273
▁pagedlist	-7274
copyfromurl	-7275
recordsetinner	-7276
div	-7277
ssf	-7278
ably	-7279
reed	-7280
abler	-7281
blems	-7282
zoneid	-7283
umbnail	-7284
▁higher	-7285
analysis	-7286
▁classic	-7287
▁merging	-7288
▁overlay	-7289
▁produce	-7290
encrypted	-7291
▁developer	-7292
▁constructs	-7293
▁domainname	-7294
declaringclass	-7295
256	-7296
ssh	-7297
rich	-7298
thet	-7299
▁nano	-7300
▁onto	-7301
▁thet	-7302
radius	-7303
▁objec	-7304
gethttp	-7305
lsocket	-7306
symbols	-7307
material	-7308
vertical	-7309
ystempro	-7310
▁decoder	-7311
▁offsets	-7312
getresult	-7313
▁combined	-7314
▁possibly	-7315
modulename	-7316
▁compareto	-7317
▁deprecated	-7318
gatewayrequest	-7319
nt	-7320
atk	-7321
▁foo	-7322
doclet	-7323
▁cipher	-7324
recursive	-7325
▁basename	-7326
▁detected	-7327
▁followed	-7328
▁suitable	-7329
▁delegates	-7330
▁leftentry	-7331
▁retrieved	-7332
▁yearmonth	-7333
▁encryption	-7334
▁methodtype	-7335
▁rightentry	-7336
elementexception	-7337
hot	-7338
pric	-7339
seen	-7340
escape	-7341
upplier	-7342
sservice	-7343
upported	-7344
▁defines	-7345
fileclient	-7346
createevent	-7347
▁querystring	-7348
▁configurations	-7349
lier	-7350
renew	-7351
...");	-7352
broker	-7353
entryp	-7354
istrue	-7355
rangeend	-7356
▁scaling	-7357
▁qualifier	-7358
oog	-7359
▁ol	-7360
bern	-7361
sset	-7362
getmin	-7363
sender	-7364
bounded	-7365
country	-7366
waitfor	-7367
setstring	-7368
queryparam	-7369
getdocument	-7370
▁currenttoken	-7371
gc	-7372
maph	-7373
000);	-7374
acket	-7375
aring	-7376
etags	-7377
getrow	-7378
tokent	-7379
▁resume	-7380
adjusted	-7381
irectory	-7382
▁readable	-7383
▁redacted	-7384
▁removing	-7385
requestbuilder	-7386
"+	-7387
[(	-7388
▁ep	-7389
▁vec	-7390
endor	-7391
timems	-7392
licable	-7393
untered	-7394
messaget	-7395
▁scanner	-7396
▁student	-7397
getmodule	-7398
valuation	-7399
▁allocated	-7400
▁precision	-7401
statusfilter	-7402
▁resourcetype	-7403
sn	-7404
ored	-7405
unce	-7406
▁itr	-7407
which	-7408
backend	-7409
groupby	-7410
nanotime	-7411
necessary	-7412
▁scenario	-7413
periodunit	-7414
▁lifecycle	-7415
▁positions	-7416
descriptors	-7417
▁generation	-7418
▁individual	-7419
'",	-7420
dri	-7421
▁1:	-7422
▁lif	-7423
quare	-7424
▁facet	-7425
deletes	-7426
student	-7427
subtract	-7428
hexstring	-7429
bindingset	-7430
concurrent	-7431
issueritem	-7432
replacement	-7433
ached	-7434
hints	-7435
peers	-7436
▁cols	-7437
downlatch	-7438
recipient	-7439
▁therefore	-7440
▁requestmethod	-7441
("***	-7442
addex	-7443
umber	-7444
glyphs	-7445
hidden	-7446
bitrary	-7447
plitter	-7448
restart	-7449
▁cloned	-7450
reclient	-7451
▁onerror	-7452
blocksize	-7453
factories	-7454
▁zookeeper	-7455
participant	-7456
machinescaleset	-7457
3)	-7458
4)	-7459
gam	-7460
isnot	-7461
▁upon	-7462
▁zoom	-7463
▁sever	-7464
▁keyspace	-7465
▁snippets	-7466
▁certificat	-7467
▁identified	-7468
▁annotationtype	-7469
fd	-7470
-01	-7471
adv	-7472
fra	-7473
>");	-7474
quot	-7475
▁exc	-7476
curly	-7477
flows	-7478
atisfi	-7479
subnet	-7480
▁cross	-7481
▁restr	-7482
overlap	-7483
texture	-7484
trainer	-7485
spection	-7486
▁checker	-7487
▁displayed	-7488
▁getclient	-7489
accesstoken	-7490
querystring	-7491
itr	-7492
▁4;	-7493
▁ir	-7494
▁rq	-7495
opts	-7496
spac	-7497
tour	-7498
▁fur	-7499
quorum	-7500
getkind	-7501
restore	-7502
▁levels	-7503
contacts	-7504
▁cleaner	-7505
▁createt	-7506
describes	-7507
▁extracts	-7508
▁createclient	-7509
ehat	-7510
reem	-7511
setid	-7512
scache	-7513
arrived	-7514
▁broker	-7515
▁getmax	-7516
getlabel	-7517
authority	-7518
localhost	-7519
▁imagefloat	-7520
▁synchronous	-7521
▁securitycontext	-7522
(3,	-7523
>",	-7524
jec	-7525
ocs	-7526
▁ta	-7527
▁oth	-7528
getor	-7529
▁ones	-7530
phrase	-7531
revent	-7532
▁locks	-7533
criteria	-7534
listitem	-7535
▁inorder	-7536
▁multimap	-7537
▁propagate	-7538
attributetype	-7539
▁notifications	-7540
eg	-7541
kti	-7542
ube	-7543
("",	-7544
()){	-7545
eroot	-7546
hours	-7547
▁gson	-7548
▁ibor	-7549
prange	-7550
▁large	-7551
▁scalar	-7552
redshift	-7553
▁divisor	-7554
▁getdata	-7555
listfiles	-7556
▁subscribe	-7557
▁websocket	-7558
▁whitespace	-7559
zk	-7560
lativ	-7561
▁ance	-7562
▁flat	-7563
▁warn	-7564
keyword	-7565
tostart	-7566
replicas	-7567
ev	-7568
fq	-7569
)},	-7570
4);	-7571
ane	-7572
▁iw	-7573
brid	-7574
ired	-7575
isex	-7576
devic	-7577
formp	-7578
alltags	-7579
maphore	-7580
tachyon	-7581
▁copies	-7582
▁twitter	-7583
▁ordering	-7584
markupstream	-7585
▁probability	-7586
2()	-7587
▁mp	-7588
acct	-7589
than	-7590
trip	-7591
endian	-7592
permit	-7593
taglist	-7594
messaged	-7595
getoffset	-7596
malformed	-7597
getpackage	-7598
ofnullable	-7599
▁frequency	-7600
setmetadata	-7601
▁kv	-7602
0));	-7603
▁led	-7604
flaws	-7605
answer	-7606
getter	-7607
▁hints	-7608
▁stops	-7609
subtype	-7610
retrieve	-7611
sometags	-7612
committed	-7613
ssplitter	-7614
withflaws	-7615
▁callpeer	-7616
▁contacts	-7617
▁timeline	-7618
binvertible	-7619
▁consistent	-7620
endsentences	-7621
▁coordinator	-7622
▁spliterator	-7623
notinvertible	-7624
curr	-7625
▁eps	-7626
▁sin	-7627
attrs	-7628
▁pick	-7629
derror	-7630
getnum	-7631
lament	-7632
putext	-7633
▁reply	-7634
sequent	-7635
▁integr	-7636
▁exports	-7637
▁further	-7638
▁invokes	-7639
▁unicode	-7640
getaction	-7641
▁particip	-7642
▁traversal	-7643
▁dispatcher	-7644
(1)	-7645
clock	-7646
▁opened	-7647
checksame	-7648
▁encrypted	-7649
▁compatible	-7650
▁ptbtokenizer	-7651
▁resourcepath	-7652
checksameshape	-7653
▁matcherassert	-7654
lr	-7655
live	-7656
▁mal	-7657
going	-7658
▁addr	-7659
echild	-7660
recomm	-7661
resume	-7662
▁https	-7663
▁hadoop	-7664
decessor	-7665
▁combine	-7666
▁isvalid	-7667
▁ancestor	-7668
▁removeby	-7669
rulecontext	-7670
▁visibility	-7671
▁*=	-7672
▁}.	-7673
uers	-7674
▁');	-7675
▁utc	-7676
iving	-7677
mouse	-7678
patch	-7679
unning	-7680
urator	-7681
visual	-7682
▁docker	-7683
▁signed	-7684
▁resolves	-7685
▁ballerina	-7686
▁valuetype	-7687
▁packagename	-7688
authenticated	-7689
sig	-7690
idle	-7691
voice	-7692
▁anim	-7693
wallet	-7694
lusters	-7695
osition	-7696
▁better	-7697
junction	-7698
loggable	-7699
outbound	-7700
atasource	-7701
unmatched	-7702
▁heartbeat	-7703
dlfileversion	-7704
▁actionlistener	-7705
fl	-7706
rev	-7707
spf	-7708
mong	-7709
sect	-7710
▁cmp	-7711
▁fit	-7712
jobflow	-7713
▁alluxio	-7714
blockevent	-7715
getpayload	-7716
eeclassname	-7717
▁assumption	-7718
▁unregister	-7719
recoverypoint	-7720
ctr	-7721
pay	-7722
(1),	-7723
gres	-7724
ring	-7725
▁'{}	-7726
▁far	-7727
premi	-7728
▁bulk	-7729
▁weak	-7730
quired	-7731
▁autoc	-7732
inbytes	-7733
▁consum	-7734
▁having	-7735
logentry	-7736
▁formats	-7737
▁rebuild	-7738
▁vertices	-7739
▁formatted	-7740
▁locations	-7741
▁declaration	-7742
directoryclient	-7743
sg	-7744
txn	-7745
agic	-7746
lied	-7747
▁mix	-7748
▁nav	-7749
▁sty	-7750
trail	-7751
▁arri	-7752
anchor	-7753
between	-7754
▁broken	-7755
getowner	-7756
▁average	-7757
▁handled	-7758
horizontal	-7759
typemirror	-7760
gi	-7761
ules	-7762
▁pay	-7763
inese	-7764
pecon	-7765
▁langu	-7766
▁around	-7767
▁prints	-7768
ee	-7769
<?>,	-7770
getb	-7771
▁cts	-7772
crumb	-7773
ofall	-7774
▁getb	-7775
orange	-7776
viewer	-7777
▁opens	-7778
proxies	-7779
▁generat	-7780
▁largest	-7781
▁skylark	-7782
compliance	-7783
ingerprint	-7784
isinstance	-7785
mounttarget	-7786
abstractfile	-7787
▁consistency	-7788
▁translation	-7789
▁bufferedimage	-7790
▁implementations	-7791
="+	-7792
▁eg	-7793
stos	-7794
▁fla	-7795
▁pdf	-7796
getas	-7797
grand	-7798
ithub	-7799
▁half	-7800
quoted	-7801
▁chang	-7802
restlet	-7803
watched	-7804
▁solver	-7805
ecommand	-7806
classtype	-7807
▁analysis	-7808
▁periodfield	-7809
immutablelist	-7810
mule	-7811
tomap	-7812
hadoop	-7813
▁shows	-7814
waiting	-7815
▁health	-7816
incipals	-7817
keyschema	-7818
registere	-7819
▁properly	-7820
fieldvalue	-7821
instanceid	-7822
▁decorator	-7823
infoenabled	-7824
▁argchecker	-7825
▁kaleotimer	-7826
▁marketdata	-7827
syncdlobject	-7828
▁availability	-7829
yy	-7830
}/	-7831
pdf	-7832
infin	-7833
prefs	-7834
contex	-7835
vation	-7836
▁cover	-7837
▁secure	-7838
vertices	-7839
▁classpk	-7840
▁iprange	-7841
fromindex	-7842
isequalto	-7843
orangeend	-7844
terminate	-7845
▁manually	-7846
▁ascending	-7847
▁companyid	-7848
▁imagesint	-7849
correlation	-7850
isinfoenabled	-7851
ird	-7852
uids	-7853
▁oid	-7854
catch	-7855
thand	-7856
digits	-7857
acquire	-7858
▁resets	-7859
▁getfile	-7860
chararray	-7861
protected	-7862
▁findbykcn	-7863
▁responder	-7864
▁conference	-7865
▁predicates	-7866
▁metadatarecord	-7867
▁dn	-7868
▁rdf	-7869
atory	-7870
phone	-7871
ynode	-7872
▁fact	-7873
▁much	-7874
ticket	-7875
▁asset	-7876
theader	-7877
▁depmap	-7878
▁chinese	-7879
▁depnode	-7880
▁escaped	-7881
▁getnode	-7882
cachemanager	-7883
errormessage	-7884
isnullorempty	-7885
movetorangeend	-7886
movefromrangeend	-7887
▁10;	-7888
▁fly	-7889
camel	-7890
copes	-7891
ssoft	-7892
tests	-7893
▁boot	-7894
thrown	-7895
▁plain	-7896
provide	-7897
▁copied	-7898
decision	-7899
ignature	-7900
▁validat	-7901
isenabled	-7902
▁indarray	-7903
▁prepared	-7904
setselected	-7905
ssoftkeywords	-7906
▁filepermission	-7907
hy	-7908
css	-7909
}")	-7910
▁'0	-7911
▁3);	-7912
acker	-7913
addon	-7914
arent	-7915
untime	-7916
iphersu	-7917
javatype	-7918
timeline	-7919
addlistener	-7920
expressions	-7921
▁instrument	-7922
streamsegment	-7923
()[	-7924
psi	-7925
getj	-7926
docum	-7927
touch	-7928
bidden	-7929
selfin	-7930
shards	-7931
▁union	-7932
currence	-7933
envelope	-7934
existent	-7935
putextra	-7936
▁filenot	-7937
kaleotask	-7938
coordinate	-7939
selfexists	-7940
setcontent	-7941
▁committed	-7942
▁exclusive	-7943
selfinscope	-7944
▁setoptions	-7945
▁printwriter	-7946
lb	-7947
rgb	-7948
▁fc	-7949
▁eam	-7950
▁neg	-7951
agger	-7952
alpha	-7953
indic	-7954
popup	-7955
average	-7956
▁choose	-7957
measures	-7958
accountid	-7959
fragments	-7960
▁decision	-7961
stringpool	-7962
▁iterables	-7963
concurrency	-7964
▁metadataentity	-7965
-1)	-7966
▁sn	-7967
▁sy	-7968
]");	-7969
suite	-7970
zones	-7971
▁audi	-7972
▁easy	-7973
▁nump	-7974
altern	-7975
atting	-7976
chunks	-7977
ranges	-7978
▁voice	-7979
assigned	-7980
setupper	-7981
▁succeed	-7982
inclusive	-7983
▁gradient	-7984
▁injector	-7985
▁interest	-7986
getaddress	-7987
▁definitions	-7988
printerparser	-7989
logeventsrequest	-7990
▁qc	-7991
chor	-7992
meto	-7993
▁0.5	-7994
▁sam	-7995
ancel	-7996
ofday	-7997
ouble	-7998
useunic	-7999
▁outside	-8000
▁delimiter	-8001
▁persistence	-8002
▁objecthelper	-8003
▁clientresponse	-8004
rew	-8005
ros	-8006
amap	-8007
▁amb	-8008
▁css	-8009
▁trip	-8010
▁latch	-8011
▁spawn	-8012
odetype	-8013
▁trains	-8014
ocations	-8015
profiles	-8016
described	-8017
▁computed	-8018
▁interpol	-8019
▁keyvalue	-8020
▁presence	-8021
▁important	-8022
▁navigation	-8023
eventfactory	-8024
▁computation	-8025
qualifiedname	-8026
replaceoutcome	-8027
/"	-8028
▁deg	-8029
▁susp	-8030
manent	-8031
models	-8032
setter	-8033
▁deriv	-8034
exports	-8035
problem	-8036
streame	-8037
customer	-8038
messageid	-8039
▁interpre	-8040
▁recovery	-8041
▁endpoints	-8042
▁fieldtype	-8043
▁malformed	-8044
erexception	-8045
checkreturnvalue	-8046
nn	-8047
mak	-8048
▁rc	-8049
rend	-8050
lenot	-8051
▁dict	-8052
shadow	-8053
typeid	-8054
▁runner	-8055
▁shadow	-8056
positive	-8057
▁polygon	-8058
backpress	-8059
decorator	-8060
sreferrer	-8061
▁expresult	-8062
resultinner	-8063
▁aggregator	-8064
▁psibuilder	-8065
getresources	-8066
unequalvalue	-8067
▁certificates	-8068
▁fieldsetflags	-8069
▁classiccounter	-8070
('/	-8071
64.	-8072
ttp	-8073
▁ma	-8074
priv	-8075
least	-8076
poses	-8077
asters	-8078
ominal	-8079
setmax	-8080
▁chart	-8081
confirm	-8082
findbyg	-8083
ingress	-8084
opencms	-8085
determin	-8086
▁replaces	-8087
stringvalue	-8088
▁horizontal	-8089
▁countdownlatch	-8090
mr	-8091
"!!	-8092
png	-8093
▁lb	-8094
▁had	-8095
▁sor	-8096
lause	-8097
usegt	-8098
▁tagl	-8099
itotal	-8100
▁reflect	-8101
▁texture	-8102
gttrainer	-8103
readcrumb	-8104
treesread	-8105
▁imported	-8106
tostartunk	-8107
▁seenfirst	-8108
▁treesread	-8109
▁checkstate	-8110
▁seencounter	-8111
inttaggedword	-8112
▁syncdlobject	-8113
beandefinition	-8114
clientresponse	-8115
useunicodetype	-8116
▁createsnapshot	-8117
filesystemmaster	-8118
▁indextostartunk	-8119
0(	-8120
ox	-8121
awk	-8122
▁nd	-8123
ggle	-8124
prior	-8125
▁very	-8126
mahawk	-8127
▁alpha	-8128
▁looks	-8129
▁saves	-8130
aliases	-8131
closure	-8132
recovery	-8133
sharding	-8134
▁getpath	-8135
getsecret	-8136
▁cancelled	-8137
▁provision	-8138
userprofile	-8139
▁dayofmonth	-8140
handlermethod	-8141
▁isochronology	-8142
deg	-8143
fly	-8144
▁gui	-8145
▁mul	-8146
▁song	-8147
ackage	-8148
isopen	-8149
triple	-8150
▁claim	-8151
▁remov	-8152
basedir	-8153
▁exactly	-8154
getvalues	-8155
iteration	-8156
▁reactive	-8157
biginteger	-8158
conference	-8159
prediction	-8160
▁closeable	-8161
removeoutcome	-8162
setaccessible	-8163
unmatchedindex	-8164
mix	-8165
here	-8166
inlin	-8167
mitiv	-8168
vided	-8169
lihood	-8170
entedges	-8171
tracking	-8172
▁getlist	-8173
▁trusted	-8174
cassandra	-8175
▁arbitrary	-8176
bi	-8177
1");	-8178
countby	-8179
general	-8180
checksum	-8181
gettable	-8182
multiply	-8183
xcontent	-8184
▁instanc	-8185
▁preview	-8186
histogram	-8187
ingestjob	-8188
▁failures	-8189
getchannel	-8190
identedges	-8191
▁multipart	-8192
coordinator	-8193
▁compressed	-8194
▁kaleotaskid	-8195
knowledgebase	-8196
2<	-8197
mq	-8198
cpu	-8199
ofn	-8200
▁sv	-8201
▁pad	-8202
deque	-8203
flash	-8204
opens	-8205
▁ping	-8206
comput	-8207
leaved	-8208
▁clock	-8209
▁mouse	-8210
expired	-8211
inherit	-8212
trusted	-8213
▁continu	-8214
▁quality	-8215
ourcename	-8216
sortedset	-8217
createcase	-8218
▁fragments	-8219
▁translate	-8220
▁kaleonodeid	-8221
typeddependency	-8222
(__	-8223
sun	-8224
imag	-8225
opic	-8226
take	-8227
istor	-8228
major	-8229
ratio	-8230
redis	-8231
▁cells	-8232
▁prefs	-8233
allenge	-8234
amethod	-8235
invoker	-8236
writing	-8237
▁extras	-8238
supports	-8239
▁systems	-8240
▁getcontext	-8241
ewithresponse	-8242
▁currententry	-8243
▁optimization	-8244
.0,	-8245
1),	-8246
yes	-8247
▁mv	-8248
ltas	-8249
asing	-8250
steps	-8251
▁"201	-8252
illing	-8253
attempts	-8254
entially	-8255
▁newname	-8256
configfile	-8257
getprotocol	-8258
▁errormessage	-8259
▁markupstream	-8260
annotationmirror	-8261
war	-8262
▁gap	-8263
chart	-8264
called	-8265
inside	-8266
▁quote	-8267
▁detail	-8268
▁queryp	-8269
▁strict	-8270
▁extractor	-8271
▁dimensions	-8272
▁storagedir	-8273
outputformat	-8274
getsuperclass	-8275
createeventimpl	-8276
mu	-8277
uby	-8278
▁dx	-8279
▁{"	-8280
chem	-8281
mpro	-8282
omial	-8283
▁elem	-8284
ablish	-8285
geturi	-8286
recent	-8287
▁thing	-8288
▁three	-8289
extended	-8290
artifacts	-8291
createtemp	-8292
▁population	-8293
1:	-8294
rb	-8295
wd	-8296
sax	-8297
drag	-8298
ivar	-8299
▁cut	-8300
▁why	-8301
atten	-8302
forme	-8303
rices	-8304
▁clas	-8305
etails	-8306
etimer	-8307
isfile	-8308
styles	-8309
throws	-8310
exclude	-8311
▁decryp	-8312
▁tenant	-8313
recorder	-8314
▁bounded	-8315
▁compiled	-8316
▁maxwidth	-8317
▁probably	-8318
▁overrides	-8319
interrupted	-8320
▁nanosuntil	-8321
▁compression	-8322
inglepageasync	-8323
storageservice	-8324
▁alt	-8325
modul	-8326
remov	-8327
▁samp	-8328
spring	-8329
▁sleep	-8330
usecase	-8331
▁digits	-8332
cachekey	-8333
contexts	-8334
▁baseuri	-8335
▁closest	-8336
getandset	-8337
▁jsonnode	-8338
▁responses	-8339
▁unchecked	-8340
▁applications	-8341
getdescription	-8342
1>	-8343
equ	-8344
▁dt	-8345
ised	-8346
explo	-8347
icted	-8348
ispri	-8349
saved	-8350
▁give	-8351
invoic	-8352
getview	-8353
▁appends	-8354
blockmeta	-8355
indicator	-8356
utilities	-8357
▁compares	-8358
▁identify	-8359
▁trailing	-8360
alluxiouri	-8361
dextension	-8362
▁alignment	-8363
▁beginning	-8364
markuprange	-8365
▁subsequent	-8366
▁atomicreference	-8367
pf	-8368
]))	-8369
fed	-8370
fir	-8371
clip	-8372
fact	-8373
rawl	-8374
vlan	-8375
▁rex	-8376
>>();	-8377
beros	-8378
ength	-8379
spark	-8380
adians	-8381
docker	-8382
effect	-8383
getraw	-8384
▁become	-8385
▁bridge	-8386
▁clause	-8387
▁extend	-8388
▁lambda	-8389
ofseconds	-8390
▁documentation	-8391
▁listoperation	-8392
rx	-8393
▁mn	-8394
apes	-8395
atar	-8396
fish	-8397
asmap	-8398
idlist	-8399
objectid	-8400
▁emitted	-8401
▁paramet	-8402
allocator	-8403
getproject	-8404
keyoptions	-8405
▁performed	-8406
▁queryutil	-8407
association	-8408
lookupclass	-8409
▁superclass	-8410
ght	-8411
jsp	-8412
>...	-8413
lite	-8414
arker	-8415
▁aren	-8416
chestr	-8417
listen	-8418
locity	-8419
usable	-8420
bernate	-8421
▁tracked	-8422
▁authenticator	-8423
sip	-8424
getm	-8425
ital	-8426
unix	-8427
▁fro	-8428
omain	-8429
strok	-8430
▁calc	-8431
▁hard	-8432
▁modul	-8433
▁spans	-8434
▁theme	-8435
▁ledger	-8436
▁outputs	-8437
▁sentence	-8438
▁getservice	-8439
unmodifiedsince	-8440
31	-8441
▁"0	-8442
▁sz	-8443
]));	-8444
▁eol	-8445
▁{}.	-8446
selec	-8447
▁coll	-8448
checke	-8449
issues	-8450
▁grade	-8451
charsets	-8452
continue	-8453
▁schedul	-8454
assertfalse	-8455
writeobject	-8456
▁getconnection	-8457
securitymanager	-8458
▁underfilesystem	-8459
▁64	-8460
▁xy	-8461
▁seg	-8462
ridge	-8463
separ	-8464
ucted	-8465
▁rels	-8466
▁docid	-8467
buckets	-8468
tobytes	-8469
▁gradle	-8470
▁rather	-8471
▁wallet	-8472
emptyset	-8473
quantity	-8474
▁parents	-8475
▁trading	-8476
edelement	-8477
fortesting	-8478
▁highlight	-8479
amounttoadd	-8480
quaternionf	-8481
certificates	-8482
▁dosetproperty	-8483
oletypemappingcb	-8484
▁ba	-8485
beta	-8486
rier	-8487
▁ann	-8488
sthan	-8489
▁probe	-8490
amanager	-8491
▁derived	-8492
▁playlist	-8493
sufficient	-8494
formatterbuilder	-8495
▁instancemanager	-8496
suc	-8497
good	-8498
spect	-8499
ublic	-8500
▁slic	-8501
▁quick	-8502
compact	-8503
cookies	-8504
olation	-8505
▁little	-8506
▁quotes	-8507
algorith	-8508
facename	-8509
iservice	-8510
▁certain	-8511
▁discard	-8512
▁profiles	-8513
▁indexreader	-8514
▁withcontext	-8515
authenticator	-8516
getparameters	-8517
typeexception	-8518
instancesoffer	-8519
bp	-8520
▁lr	-8521
thrw	-8522
ophase	-8523
▁mbean	-8524
econstr	-8525
iatejob	-8526
vectors	-8527
▁duplic	-8528
combined	-8529
▁bytebuf	-8530
▁ordinal	-8531
▁replica	-8532
▁eventhub	-8533
isloggable	-8534
uniquename	-8535
▁adjustment	-8536
▁finderargs	-8537
createoptions	-8538
azel	-8539
cing	-8540
many	-8541
▁tcp	-8542
toset	-8543
▁live	-8544
strict	-8545
tester	-8546
▁going	-8547
advisor	-8548
aussian	-8549
parsing	-8550
▁merges	-8551
getgroup	-8552
nextwith	-8553
testutils	-8554
optionstring	-8555
getidentifier	-8556
▁certificatename	-8557
ng	-8558
pow	-8559
uts	-8560
:");	-8561
erec	-8562
cross	-8563
wrong	-8564
detect	-8565
putint	-8566
wicket	-8567
divisor	-8568
readers	-8569
similar	-8570
startup	-8571
behavior	-8572
boundary	-8573
dbobject	-8574
viewport	-8575
▁balance	-8576
getscheme	-8577
precision	-8578
▁accepted	-8579
▁accounts	-8580
▁replaced	-8581
▁zonename	-8582
hap	-8583
two	-8584
_000	-8585
weak	-8586
▁car	-8587
izard	-8588
▁wiki	-8589
ibling	-8590
integr	-8591
letime	-8592
recipe	-8593
taskid	-8594
tunnel	-8595
▁ascii	-8596
▁audit	-8597
▁dirty	-8598
endtime	-8599
▁cosmos	-8600
inessday	-8601
consistent	-8602
targettype	-8603
getendpoint	-8604
▁determined	-8605
▁foreground	-8606
▁parentfolderid	-8607
consumedcapacity	-8608
","	-8609
icol	-8610
usic	-8611
▁come	-8612
▁cryp	-8613
icated	-8614
reated	-8615
resolv	-8616
routes	-8617
▁comma	-8618
▁rename	-8619
clientid	-8620
synchron	-8621
cachesize	-8622
parselong	-8623
▁executors	-8624
▁fieldvalue	-8625
▁alternative	-8626
▁getapplication	-8627
##	-8628
jen	-8629
mgr	-8630
▁bs	-8631
bool	-8632
freq	-8633
iset	-8634
▁ends	-8635
▁thus	-8636
peconf	-8637
▁nodeid	-8638
▁strong	-8639
▁expired	-8640
▁keyname	-8641
responses	-8642
dateformat	-8643
newhashset	-8644
▁recipient	-8645
▁objectname	-8646
▁startindex	-8647
rorexception	-8648
gatewayresult	-8649
))).	-8650
ster	-8651
sable	-8652
▁band	-8653
▁resid	-8654
▁trunc	-8655
pressed	-8656
▁logged	-8657
▁spaces	-8658
ilestone	-8659
parallel	-8660
provided	-8661
▁heapify	-8662
▁startup	-8663
▁maintain	-8664
▁secondary	-8665
▁getfilters	-8666
▁tokenbuilder	-8667
changelistener	-8668
▁clusterconfig	-8669
▁jc	-8670
look	-8671
mage	-8672
▁dao	-8673
▁dev	-8674
▁std	-8675
alist	-8676
▁spot	-8677
▁vpls	-8678
footer	-8679
forced	-8680
inputt	-8681
ortion	-8682
▁ofall	-8683
▁quorum	-8684
appender	-8685
datapoint	-8686
discovery	-8687
intervals	-8688
▁testremove	-8689
favoritesite	-8690
▁dy	-8691
▁xm	-8692
bars	-8693
fold	-8694
rele	-8695
▁saf	-8696
▁sur	-8697
[1]);	-8698
attle	-8699
ewrit	-8700
hbase	-8701
kemon	-8702
▁cors	-8703
watcher	-8704
working	-8705
▁inline	-8706
▁tokent	-8707
▁satisfi	-8708
expresult	-8709
reflection	-8710
▁attachment	-8711
▁modifiedtime	-8712
("@	-8713
don	-8714
}).	-8715
▁vv	-8716
vely	-8717
▁ndx	-8718
appro	-8719
gered	-8720
▁[{}]	-8721
▁xmpp	-8722
ableto	-8723
estack	-8724
temall	-8725
▁abort	-8726
▁dates	-8727
regular	-8728
timeunit	-8729
▁litemall	-8730
▁reporter	-8731
▁throwing	-8732
kaleotimer	-8733
▁compaction	-8734
▁containers	-8735
requestparam	-8736
▁pcollection	-8737
virtualmachine	-8738
▁cg	-8739
ldap	-8740
tect	-8741
uman	-8742
▁ded	-8743
forms	-8744
inted	-8745
ocial	-8746
unner	-8747
▁mail	-8748
▁getby	-8749
▁suite	-8750
attempt	-8751
caption	-8752
▁models	-8753
▁occurs	-8754
▁scorer	-8755
▁sparse	-8756
internet	-8757
▁keyword	-8758
▁scratch	-8759
▁consumed	-8760
▁optimize	-8761
▁completes	-8762
enumeration	-8763
orientation	-8764
▁optionally	-8765
▁sslcontext	-8766
requesthandler	-8767
kb	-8768
ios	-8769
cols	-8770
dict	-8771
susp	-8772
▁200	-8773
▁sep	-8774
-01";	-8775
estat	-8776
atives	-8777
▁timed	-8778
▁waits	-8779
maxsize	-8780
sublist	-8781
▁linear	-8782
▁tracks	-8783
ordering	-8784
▁surface	-8785
unication	-8786
▁axisangle	-8787
▁modifiers	-8788
▁templates	-8789
datasourcefroms	-8790
▁requestbuilder	-8791
14	-8792
01;	-8793
eco	-8794
scene	-8795
either	-8796
▁exceed	-8797
▁hidden	-8798
▁sponge	-8799
▁smaller	-8800
▁visited	-8801
authorize	-8802
bluetooth	-8803
getlocale	-8804
zookeeper	-8805
▁deletion	-8806
▁submitted	-8807
entityevent	-8808
requestmethod	-8809
car	-8810
(-1);	-8811
datac	-8812
artist	-8813
imated	-8814
inator	-8815
margin	-8816
▁deque	-8817
ategies	-8818
covered	-8819
readint	-8820
retries	-8821
satisfi	-8822
varname	-8823
crawling	-8824
▁enqueue	-8825
▁getnext	-8826
▁checksum	-8827
▁modifier	-8828
▁todouble	-8829
getruntime	-8830
▁fileutils	-8831
▁paragraph	-8832
ctcustomxml	-8833
setvisibility	-8834
+1	-8835
.,	-8836
bj	-8837
uin	-8838
▁dc	-8839
▁tl	-8840
(0),	-8841
▁lon	-8842
▁occ	-8843
locks	-8844
ycler	-8845
retain	-8846
▁"2016	-8847
hastext	-8848
license	-8849
▁balanc	-8850
▁forced	-8851
gettoken	-8852
▁expires	-8853
▁granted	-8854
▁flowable	-8855
▁allocator	-8856
▁artifacts	-8857
urlexception	-8858
▁combination	-8859
▁deserialize	-8860
eff	-8861
iri	-8862
▁yang	-8863
▁compo	-8864
▁emits	-8865
aplayer	-8866
ervices	-8867
posable	-8868
seditor	-8869
discount	-8870
getentity	-8871
▁maxresults	-8872
▁specifying	-8873
errorhandler	-8874
▁sasprotocol	-8875
getconstructor	-8876
▁attributename	-8877
acn	-8878
▁3,	-8879
▁zk	-8880
▁"--	-8881
▁dri	-8882
agram	-8883
scrip	-8884
▁seek	-8885
addres	-8886
ighted	-8887
tojson	-8888
getcode	-8889
logical	-8890
merging	-8891
toindex	-8892
▁percol	-8893
controls	-8894
▁aligned	-8895
ivariable	-8896
▁multiply	-8897
▁assertions	-8898
▁modulename	-8899
keycredential	-8900
▁clusterstate	-8901
securityoptions	-8902
24	-8903
xf	-8904
vor	-8905
▁pm	-8906
hide	-8907
phan	-8908
())).	-8909
blang	-8910
cells	-8911
▁peek	-8912
▁puts	-8913
within	-8914
▁newly	-8915
▁wraps	-8916
odelete	-8917
▁subset	-8918
possible	-8919
▁tagname	-8920
authtoken	-8921
dtcontent	-8922
▁managing	-8923
▁updating	-8924
classnames	-8925
translator	-8926
▁evaluator	-8927
▁leftchild	-8928
▁rightchild	-8929
putattributes	-8930
.)	-8931
dy	-8932
hu	-8933
sv	-8934
("_	-8935
lhs	-8936
ofr	-8937
▁mds	-8938
▁spo	-8939
softw	-8940
▁prox	-8941
ematch	-8942
ertask	-8943
proper	-8944
▁enter	-8945
▁yield	-8946
expires	-8947
▁lucene	-8948
▁person	-8949
▁taskid	-8950
examples	-8951
▁opcodes	-8952
▁skipped	-8953
rectangle	-8954
getfilename	-8955
relativepath	-8956
▁propertykey	-8957
▁rulecontext	-8958
▁implementing	-8959
▁streamsegment	-8960
▁classification	-8961
rd	-8962
stag	-8963
zoom	-8964
affic	-8965
▁blog	-8966
▁getn	-8967
ersist	-8968
manage	-8969
vedocs	-8970
▁recor	-8971
isarray	-8972
geometry	-8973
▁reactor	-8974
fromcache	-8975
yposition	-8976
candidates	-8977
ecomponent	-8978
▁bytecount	-8979
▁gadgetkey	-8980
aggregations	-8981
getpartition	-8982
layoutparams	-8983
pathvariable	-8984
px	-8985
\":	-8986
ymbo	-8987
▁nul	-8988
embed	-8989
cipher	-8990
locals	-8991
▁initi	-8992
▁preds	-8993
▁scene	-8994
shardid	-8995
▁saving	-8996
▁styles	-8997
attindex	-8998
getmodel	-8999
poptions	-9000
solution	-9001
volatile	-9002
analytics	-9003
languages	-9004
randomuuid	-9005
propertykey	-9006
▁configures	-9007
authenticate	-9008
restresponse	-9009
resourcetypes	-9010
11;	-9011
ann	-9012
dop	-9013
hard	-9014
loom	-9015
oost	-9016
▁tbl	-9017
slash	-9018
consum	-9019
traver	-9020
enqueue	-9021
ypolicy	-9022
▁caught	-9023
▁holder	-9024
▁pixels	-9025
▁really	-9026
creating	-9027
fromfile	-9028
getinput	-9029
orupdate	-9030
rounding	-9031
▁happens	-9032
▁subquer	-9033
streaming	-9034
adirectory	-9035
iterations	-9036
ubycontent	-9037
▁persisted	-9038
beansetupper	-9039
▁testreplace	-9040
▁responseentity	-9041
mf	-9042
"})	-9043
10;	-9044
allo	-9045
goti	-9046
brain	-9047
esize	-9048
kafka	-9049
▁apic	-9050
▁drag	-9051
design	-9052
linear	-9053
▁slash	-9054
emplate	-9055
▁detach	-9056
▁descend	-9057
highlight	-9058
▁setvalue	-9059
▁getstatus	-9060
▁installed	-9061
▁inventory	-9062
cardinality	-9063
quaternionfc	-9064
▁replication	-9065
eventlistener	-9066
oi	-9067
("\"	-9068
entr	-9069
stest	-9070
▁hide	-9071
▁qpos	-9072
000000	-9073
iamuser	-9074
grouping	-9075
handling	-9076
▁templat	-9077
migration	-9078
optimized	-9079
retention	-9080
▁gadgetid	-9081
▁notifies	-9082
▁querypar	-9083
normalizer	-9084
taskstatus	-9085
▁applicable	-9086
▁setdefault	-9087
apcredentials	-9088
checkedexception	-9089
getcanonicalname	-9090
lw	-9091
wa	-9092
xs	-9093
bly	-9094
▁rv	-9095
once	-9096
large	-9097
night	-9098
relay	-9099
▁capt	-9100
corpus	-9101
getmap	-9102
gettag	-9103
rottle	-9104
▁album	-9105
andswap	-9106
verbose	-9107
▁others	-9108
▁aliases	-9109
▁suppress	-9110
▁testcase	-9111
▁procedure	-9112
attributesto	-9113
▁interceptors	-9114
▁asynchronously	-9115
tig	-9116
▁ospf	-9117
▁"'");	-9118
▁appid	-9119
braries	-9120
▁anchor	-9121
▁likely	-9122
bitfield	-9123
enchmark	-9124
referenc	-9125
searcher	-9126
▁creator	-9127
▁indexdst	-9128
▁queryset	-9129
▁startpos	-9130
exceptions	-9131
stringutil	-9132
▁datamodel	-9133
▁separated	-9134
getmodifiers	-9135
gettimestamp	-9136
▁correlation	-9137
▁identifiers	-9138
▁queryresult	-9139
▁getproperties	-9140
▁xwikiexception	-9141
1/	-9142
("0	-9143
:00	-9144
some	-9145
▁hot	-9146
▁rdd	-9147
crets	-9148
ervic	-9149
ewrap	-9150
lipse	-9151
isnull	-9152
noneof	-9153
enotype	-9154
getcall	-9155
relativ	-9156
▁bigint	-9157
▁dropped	-9158
▁recover	-9159
▁symbols	-9160
▁valueof	-9161
propagate	-9162
specified	-9163
▁graphics	-9164
▁subtract	-9165
categories	-9166
▁protocols	-9167
deserializer	-9168
▁legacyutils	-9169
identifierkey	-9170
▁loadbalancer	-9171
compareandswap	-9172
▁directoryclient	-9173
bc	-9174
▁yg	-9175
getif	-9176
getun	-9177
▁walk	-9178
coords	-9179
ledger	-9180
replay	-9181
etarget	-9182
▁chunks	-9183
▁design	-9184
▁passes	-9185
distinct	-9186
eviction	-9187
latitude	-9188
rootnode	-9189
▁"2016-0	-9190
▁sequenc	-9191
getactive	-9192
▁localized	-9193
callerclass	-9194
commandline	-9195
▁getcontent	-9196
▁invalidate	-9197
▁assertobject	-9198
▁stringwriter	-9199
▁beandefinition	-9200
32(	-9201
cmap	-9202
ityp	-9203
pivot	-9204
getpre	-9205
quared	-9206
courseid	-9207
expanded	-9208
rawtypes	-9209
localtime	-9210
▁oldvalue	-9211
▁categories	-9212
▁columnname	-9213
▁monthofyear	-9214
zoneddatetime	-9215
periodprovider	-9216
requestexception	-9217
ibr	-9218
you	-9219
▁ask	-9220
▁git	-9221
junit	-9222
strac	-9223
colors	-9224
github	-9225
laments	-9226
▁getlog	-9227
▁planar	-9228
fcpoints	-9229
routines	-9230
variance	-9231
▁getlast	-9232
directive	-9233
getamount	-9234
textutils	-9235
atedevents	-9236
▁inherited	-9237
▁assertnull	-9238
▁difference	-9239
▁downstream	-9240
dateproperty	-9241
▁executiontype	-9242
▁localsecondary	-9243
hc	-9244
fun	-9245
▁cd	-9246
▁xs	-9247
▁xx	-9248
("--	-9249
apps	-9250
calc	-9251
onts	-9252
▁ddl	-9253
haser	-9254
▁saml	-9255
linker	-9256
assandr	-9257
booking	-9258
issuers	-9259
keypair	-9260
periods	-9261
spatial	-9262
ularity	-9263
▁contri	-9264
conflict	-9265
▁gettree	-9266
▁reducer	-9267
sortorder	-9268
▁delivery	-9269
▁distinct	-9270
▁getentry	-9271
▁remember	-9272
deregister	-9273
▁cassandra	-9274
▁getparent	-9275
▁newinstance	-9276
▁opensession	-9277
blobcontainer	-9278
▁compatibility	-9279
setautoconstruct	-9280
.";	-9281
dings	-9282
javap	-9283
usted	-9284
bution	-9285
▁bands	-9286
loaders	-9287
stopped	-9288
getimage	-9289
▁devices	-9290
currences	-9291
empirical	-9292
▁accessor	-9293
▁learning	-9294
▁semantic	-9295
▁terminal	-9296
membership	-9297
pressroute	-9298
▁inclusive	-9299
stackrequest	-9300
▁getresponse	-9301
▁onsubscribe	-9302
▁partitionid	-9303
componentname	-9304
vpc	-9305
▁){	-9306
▁nv	-9307
▁wa	-9308
(1).	-9309
movi	-9310
▁prep	-9311
ornull	-9312
▁pipel	-9313
▁purge	-9314
haviour	-9315
▁recomm	-9316
reactive	-9317
shortcut	-9318
▁setname	-9319
balancers	-9320
ecallback	-9321
exclusive	-9322
inspector	-9323
secondary	-9324
setstatus	-9325
viewstate	-9326
▁deadline	-9327
▁deferred	-9328
entrypoint	-9329
▁sequences	-9330
▁streaming	-9331
temporalfield	-9332
sym	-9333
erex	-9334
▁prun	-9335
***").	-9336
emulti	-9337
inject	-9338
▁blank	-9339
cosname	-9340
inbound	-9341
▁intvar	-9342
▁gettext	-9343
▁outputt	-9344
andreturn	-9345
templates	-9346
▁bookmark	-9347
▁discount	-9348
normalized	-9349
▁groupname	-9350
▁migration	-9351
typeelement	-9352
mentexception	-9353
▁actionprofile	-9354
024	-9355
▁bp	-9356
lies	-9357
ofor	-9358
rins	-9359
wall	-9360
▁));	-9361
▁kml	-9362
asint	-9363
▁stro	-9364
▁const	-9365
▁taken	-9366
ational	-9367
offline	-9368
varargs	-9369
articles	-9370
▁assumed	-9371
▁enables	-9372
inodepath	-9373
yprocessor	-9374
▁blocksize	-9375
▁expecting	-9376
mergepolicy	-9377
▁setproperty	-9378
isk	-9379
▁4)	-9380
1123	-9381
255.	-9382
▁rgb	-9383
▁{},	-9384
corer	-9385
micol	-9386
otype	-9387
timed	-9388
▁opts	-9389
sevent	-9390
tracks	-9391
▁simul	-9392
▁sites	-9393
micolon	-9394
setfile	-9395
▁tuples	-9396
▁configs	-9397
▁implicit	-9398
▁relevant	-9399
connectpoint	-9400
immutableset	-9401
transactions	-9402
▁listallnext	-9403
▁contactquery	-9404
▁verification	-9405
▁setproperties	-9406
2",	-9407
fee	-9408
dbid	-9409
addrs	-9410
glish	-9411
odate	-9412
▁alter	-9413
findall	-9414
polygon	-9415
through	-9416
director	-9417
econtent	-9418
poolsize	-9419
pipelined	-9420
requestid	-9421
weighting	-9422
▁mcurrent	-9423
certificat	-9424
▁populated	-9425
▁rebalance	-9426
monthofyear	-9427
tochararray	-9428
configurator	-9429
ypropertyname	-9430
▁periodfields	-9431
securitygroups	-9432
virtualnetwork	-9433
ssinglepageasync	-9434
)((	-9435
ays	-9436
tip	-9437
▁3.	-9438
mime	-9439
▁tor	-9440
addto	-9441
arest	-9442
edata	-9443
erate	-9444
ilent	-9445
rowse	-9446
▁hive	-9447
▁punct	-9448
samples	-9449
▁cmsxml	-9450
▁shards	-9451
echanged	-9452
▁cookies	-9453
primitive	-9454
▁notified	-9455
doperation	-9456
fromvolume	-9457
identedgesn	-9458
columnfamily	-9459
▁commandline	-9460
sharditerator	-9461
▁blockingwait	-9462
servletcontext	-9463
_2	-9464
rdf	-9465
▁pw	-9466
(""))	-9467
sites	-9468
▁hdfs	-9469
ewrite	-9470
lerate	-9471
▁blang	-9472
▁board	-9473
metypes	-9474
▁dbname	-9475
▁larger	-9476
getquery	-9477
writeint	-9478
▁replicas	-9479
▁rangecheck	-9480
▁targetclass	-9481
▁closesession	-9482
createstatement	-9483
streamexception	-9484
amt	-9485
▁"(	-9486
▁lh	-9487
▁py	-9488
ibor	-9489
ilon	-9490
lave	-9491
vite	-9492
▁era	-9493
ework	-9494
▁omit	-9495
▁slur	-9496
▁trac	-9497
ocused	-9498
▁1000;	-9499
▁numer	-9500
cleaner	-9501
dispose	-9502
fixture	-9503
▁azures	-9504
ignoring	-9505
tomillis	-9506
▁foreign	-9507
including	-9508
▁wrapping	-9509
▁gettarget	-9510
▁recording	-9511
▁stacktrace	-9512
▁submission	-9513
logeventsresult	-9514
▁parseexception	-9515
keycreateoptions	-9516
▁0:	-9517
ming	-9518
osen	-9519
▁jms	-9520
▁yes	-9521
visib	-9522
▁raft	-9523
frames	-9524
gradle	-9525
resize	-9526
▁sound	-9527
automat	-9528
tlement	-9529
▁camera	-9530
▁flyway	-9531
▁country	-9532
findfirst	-9533
hyperlink	-9534
inherited	-9535
loadclass	-9536
paragraph	-9537
▁deviceid	-9538
▁javatype	-9539
▁getstring	-9540
intersection	-9541
inventoryevent	-9542
managerfactory	-9543
▁getanyfunction	-9544
auge	-9545
lace	-9546
tele	-9547
▁ipv	-9548
▁tls	-9549
>>>()	-9550
about	-9551
manag	-9552
poole	-9553
apture	-9554
arenow	-9555
circle	-9556
▁beans	-9557
compose	-9558
desired	-9559
filenot	-9560
odetree	-9561
testbit	-9562
▁imaged	-9563
▁issues	-9564
diagnost	-9565
inations	-9566
prefixes	-9567
▁sorting	-9568
▁stopped	-9569
evaluator	-9570
getglobal	-9571
isnotnull	-9572
plaintext	-9573
privilege	-9574
setlength	-9575
▁jobstate	-9576
cacheentry	-9577
▁establish	-9578
▁requestid	-9579
distributed	-9580
messagetype	-9581
softwarenow	-9582
▁javascript	-9583
▁returnvalue	-9584
▁capabilities	-9585
▁objectmapper	-9586
▁saxexception	-9587
classification	-9588
instanceresult	-9589
26	-9590
hass	-9591
vpls	-9592
sever	-9593
spans	-9594
▁hssf	-9595
ectral	-9596
setint	-9597
▁sanit	-9598
▁toast	-9599
colinfo	-9600
launcher	-9601
memberid	-9602
▁ruleset	-9603
▁swagger	-9604
ispectral	-9605
servername	-9606
beanfactory	-9607
clustername	-9608
readunsigned	-9609
securitycontext	-9610
▁servletcontext	-9611
▁sd	-9612
arns	-9613
jars	-9614
▁ste	-9615
enclo	-9616
fatal	-9617
mpling	-9618
▁front	-9619
▁getor	-9620
▁milli	-9621
doctype	-9622
listing	-9623
▁sketch	-9624
▁purpose	-9625
▁substit	-9626
gadgetkey	-9627
objective	-9628
storemove	-9629
▁excluded	-9630
unregister	-9631
▁iresource	-9632
▁processes	-9633
getpassword	-9634
seditortype	-9635
▁drivermanager	-9636
keywithresponse	-9637
tn	-9638
2))	-9639
bes	-9640
ttl	-9641
▁da	-9642
▁ie	-9643
bins	-9644
advoc	-9645
ctask	-9646
velop	-9647
▁pojo	-9648
crease	-9649
getand	-9650
▁rooms	-9651
▁setmax	-9652
directed	-9653
ominator	-9654
▁backlog	-9655
▁confirm	-9656
▁findbyc	-9657
closeable	-9658
▁applying	-9659
▁grouping	-9660
▁substring	-9661
▁validated	-9662
▁indexshard	-9663
▁(0	-9664
▁?,	-9665
[3];	-9666
▁ops	-9667
▁rds	-9668
album	-9669
house	-9670
paged	-9671
party	-9672
thttp	-9673
clause	-9674
multip	-9675
uilder	-9676
xsetup	-9677
rentity	-9678
toolbar	-9679
▁naming	-9680
detector	-9681
todouble	-9682
▁backend	-9683
accesskey	-9684
calculate	-9685
immediate	-9686
presenter	-9687
▁triggers	-9688
currentuser	-9689
▁datastream	-9690
datadirectory	-9691
▁eventhandler	-9692
▁querybuilder	-9693
('=	-9694
300	-9695
hop	-9696
lop	-9697
vfs	-9698
▁&=	-9699
inout	-9700
strum	-9701
▁disp	-9702
▁mref	-9703
arduin	-9704
getnod	-9705
▁early	-9706
▁reuse	-9707
▁views	-9708
capsule	-9709
elength	-9710
updater	-9711
coverage	-9712
setimage	-9713
▁decoded	-9714
▁leading	-9715
▁eviction	-9716
▁measures	-9717
describest	-9718
▁databases	-9719
querybuilder	-9720
▁previousref	-9721
evaluationresult	-9722
▁ve	-9723
[1],	-9724
▁hol	-9725
▁rfc	-9726
▁}));	-9727
ackson	-9728
igrate	-9729
▁infin	-9730
combine	-9731
natural	-9732
consumes	-9733
removeby	-9734
▁inserts	-9735
▁unnamed	-9736
arraytype	-9737
transient	-9738
▁policies	-9739
javascript	-9740
▁optimized	-9741
▁bifunction	-9742
▁cachewriter	-9743
▁encountered	-9744
lsocketfactory	-9745
pectedexception	-9746
▁getdescription	-9747
▁requestcontext	-9748
▁stripeexception	-9749
arb	-9750
jwt	-9751
anti	-9752
pick	-9753
uron	-9754
▁dbc	-9755
▁qnm	-9756
alarm	-9757
topics	-9758
veness	-9759
▁twice	-9760
getdate	-9761
twitter	-9762
▁artist	-9763
comments	-9764
infolist	-9765
▁accepts	-9766
▁secrets	-9767
alsecurity	-9768
textension	-9769
isconnected	-9770
▁withstatus	-9771
▁contactdetail	-9772
documentbuilder	-9773
ze	-9774
▁]	-9775
prj	-9776
choo	-9777
▁fut	-9778
▁rtp	-9779
▁getp	-9780
▁isex	-9781
extent	-9782
inline	-9783
tomono	-9784
vendor	-9785
▁holds	-9786
ueprint	-9787
▁toarray	-9788
▁zipfile	-9789
▁clientid	-9790
▁forkjoin	-9791
comparable	-9792
disconnect	-9793
▁chronounit	-9794
▁ctcustomxml	-9795
▁contentvalues	-9796
('\	-9797
▁mb	-9798
(3);	-9799
aler	-9800
fiel	-9801
gles	-9802
thon	-9803
▁adj	-9804
▁fra	-9805
())))	-9806
dopri	-9807
lover	-9808
netty	-9809
seleaf	-9810
speech	-9811
atkread	-9812
▁middle	-9813
▁routes	-9814
ewrapper	-9815
implicit	-9816
testname	-9817
toplevel	-9818
▁parties	-9819
isvisible	-9820
shortname	-9821
▁getindex	-9822
▁prefixes	-9823
oauthtoken	-9824
successful	-9825
▁evaluates	-9826
▁getmessage	-9827
▁transitive	-9828
doprivileged	-9829
gatewayinner	-9830
getexception	-9831
▁subscribers	-9832
jb	-9833
ww	-9834
las	-9835
osg	-9836
;");	-9837
adin	-9838
emap	-9839
▁kid	-9840
enext	-9841
folds	-9842
minim	-9843
ssize	-9844
▁hack	-9845
itical	-9846
▁hbase	-9847
eraddon	-9848
gettask	-9849
▁strike	-9850
equation	-9851
streamid	-9852
▁usually	-9853
converted	-9854
▁multibit	-9855
▁xcontent	-9856
▁exitvalue	-9857
checkpoints	-9858
seleaftoken	-9859
suppression	-9860
currencypair	-9861
▁handlermethod	-9862
operationresult	-9863
"},	-9864
5);	-9865
pad	-9866
tcp	-9867
▁fd	-9868
hdfs	-9869
liest	-9870
smart	-9871
curacy	-9872
nameto	-9873
syntax	-9874
agecode	-9875
andview	-9876
ictions	-9877
▁parset	-9878
deferred	-9879
▁blocked	-9880
normalize	-9881
▁advanced	-9882
▁mutation	-9883
▁traverse	-9884
▁viewport	-9885
indexoutof	-9886
storagedir	-9887
suggestion	-9888
▁dayofyear	-9889
▁aggregated	-9890
▁offsetdate	-9891
ewe	-9892
gwt	-9893
ipv	-9894
sur	-9895
▁iv	-9896
doub	-9897
▁jsp	-9898
▁poo	-9899
maybe	-9900
minor	-9901
purge	-9902
('=');	-9903
rename	-9904
strans	-9905
▁dense	-9906
▁paren	-9907
builtin	-9908
lerance	-9909
recycle	-9910
▁colors	-9911
▁oracle	-9912
basepath	-9913
bytecode	-9914
echannel	-9915
errormsg	-9916
esetname	-9917
recation	-9918
metadatas	-9919
onfailure	-9920
▁endindex	-9921
▁released	-9922
percentage	-9923
screenname	-9924
▁setstatus	-9925
ecertificate	-9926
getexitvalue	-9927
pecification	-9928
scalesetname	-9929
setparameter	-9930
etablerequest	-9931
▁databasetype	-9932
▁xwikicontext	-9933
getcertificate	-9934
preparestatement	-9935
▁typeddependency	-9936
3(	-9937
jid	-9938
rid	-9939
zen	-9940
gint	-9941
hive	-9942
leet	-9943
leni	-9944
▁gov	-9945
audit	-9946
tourl	-9947
▁rich	-9948
estart	-9949
itemid	-9950
manual	-9951
vename	-9952
▁engin	-9953
isnamed	-9954
getevent	-9955
▁backing	-9956
▁encrypt	-9957
▁playera	-9958
▁regions	-9959
getrandom	-9960
▁createdb	-9961
▁streamid	-9962
▁anonymous	-9963
▁filtering	-9964
ifnecessary	-9965
ityprovider	-9966
▁attempting	-9967
localservice	-9968
successfully	-9969
▁indexmetadata	-9970
unmodifiablemap	-9971
66	-9972
aa	-9973
idi	-9974
▁ub	-9975
perf	-9976
butor	-9977
javax	-9978
occur	-9979
parql	-9980
uator	-9981
ditems	-9982
deliver	-9983
elapsed	-9984
uchbase	-9985
▁newdep	-9986
dataspec	-9987
fluxutil	-9988
movement	-9989
playback	-9990
▁several	-9991
callbacks	-9992
imageuint	-9993
temporary	-9994
▁detailast	-9995
▁getsource	-9996
ingstrategy	-9997
▁createfile	-9998
poolexecutor	-9999
hasmoretokens	-10000
bootstrapmethod	-10001
instancesresult	-10002
▁typedescriptor	-10003
.*	-10004
({"	-10005
chr	-10006
isc	-10007
neg	-10008
seg	-10009
▁bas	-10010
▁eff	-10011
▁rev	-10012
omaly	-10013
▁skin	-10014
finest	-10015
semant	-10016
▁javax	-10017
▁serde	-10018
arduino	-10019
reading	-10020
▁backed	-10021
▁reload	-10022
azelcast	-10023
batchsize	-10024
yearmonth	-10025
▁adjusted	-10026
▁compared	-10027
experiment	-10028
httpmethod	-10029
▁getlogger	-10030
▁overwrite	-10031
▁association	-10032
coreexception	-10033
▁pluginresult	-10034
getcomponenttype	-10035
1()	-10036
_1_	-10037
whe	-10038
▁')	-10039
arms	-10040
leto	-10041
trig	-10042
repla	-10043
ingbox	-10044
opcode	-10045
accepted	-10046
gadgetid	-10047
headword	-10048
javafile	-10049
kaleolog	-10050
released	-10051
▁invoker	-10052
registrar	-10053
▁physical	-10054
▁searches	-10055
▁eventtype	-10056
▁handshake	-10057
▁autocancel	-10058
▁createcase	-10059
headwordnode	-10060
▁conditional	-10061
▁generictype	-10062
▁predecessor	-10063
stringbuilder	-10064
1}	-10065
cer	-10066
rds	-10067
▁:=	-10068
memo	-10069
▁'\\	-10070
▁sun	-10071
▁10);	-10072
▁salt	-10073
▁addto	-10074
▁apple	-10075
▁inlin	-10076
ignored	-10077
oclient	-10078
orderby	-10079
ypename	-10080
▁locals	-10081
isactive	-10082
selement	-10083
▁nonnull	-10084
▁reasons	-10085
blacklist	-10086
▁deleting	-10087
▁discover	-10088
volatility	-10089
▁collected	-10090
▁factories	-10091
▁punctyped	-10092
▁disconnect	-10093
getcontainer	-10094
▁gettreedeps	-10095
▁recognition	-10096
getnameasstring	-10097
modulereference	-10098
deploymentstatus	-10099
hol	-10100
▁mm	-10101
avro	-10102
verb	-10103
{}",	-10104
isnan	-10105
unset	-10106
volve	-10107
▁disc	-10108
▁etag	-10109
▁soft	-10110
daemon	-10111
getjob	-10112
levels	-10113
▁qname	-10114
baseuri	-10115
ensible	-10116
ymbolic	-10117
▁various	-10118
handshake	-10119
iterators	-10120
websocket	-10121
▁concrete	-10122
▁courseid	-10123
▁objectid	-10124
▁treenode	-10125
imagefloat	-10126
▁offsettime	-10127
responsecode	-10128
▁contenttree	-10129
▁printstream	-10130
▁apiexception	-10131
▁encodingutils	-10132
▁treegraphnode	-10133
globalsecondary	-10134
'))	-10135
▁2:	-10136
▁bg	-10137
atts	-10138
coin	-10139
▁wor	-10140
))));	-10141
ullet	-10142
▁didn	-10143
contro	-10144
minmax	-10145
▁roots	-10146
fetchby	-10147
numbers	-10148
▁corrup	-10149
▁recipe	-10150
▁unwrap	-10151
indexout	-10152
▁signing	-10153
projectid	-10154
successor	-10155
▁appended	-10156
openstream	-10157
underlying	-10158
▁createdby	-10159
▁imagetype	-10160
restrequest	-10161
▁getsession	-10162
currenttoken	-10163
getclassname	-10164
▁accumulator	-10165
vilegedaction	-10166
ae	-10167
(',	-10168
apt	-10169
ddl	-10170
nor	-10171
pas	-10172
(200	-10173
weet	-10174
▁"\\	-10175
▁crc	-10176
tmpstr	-10177
▁addex	-10178
gettags	-10179
vileges	-10180
▁fixing	-10181
scluster	-10182
▁belongs	-10183
▁taglist	-10184
mitivetype	-10185
▁angleaxis	-10186
▁apiclient	-10187
▁typetoken	-10188
coordinates	-10189
marketplace	-10190
orexception	-10191
▁connecting	-10192
▁httpmethod	-10193
▁internally	-10194
getexecution	-10195
getoperation	-10196
blockingqueue	-10197
loadbalancers	-10198
▁currentindex	-10199
filtervariable	-10200
watchedelement	-10201
▁vmscalesetname	-10202
=0	-10203
bw	-10204
tv	-10205
kes	-10206
▁ls	-10207
keyp	-10208
▁flo	-10209
()");	-10210
▁deep	-10211
▁getm	-10212
▁ring	-10213
ensure	-10214
ponent	-10215
pricer	-10216
▁serve	-10217
aclient	-10218
alluxio	-10219
getrole	-10220
▁frames	-10221
▁splits	-10222
▁though	-10223
gaussian	-10224
severity	-10225
▁minimal	-10226
▁newtype	-10227
iconsumer	-10228
imageview	-10229
▁piaction	-10230
▁recorded	-10231
documented	-10232
▁authority	-10233
▁sortorder	-10234
accesspolicy	-10235
▁classifiers	-10236
▁placeholder	-10237
▁batchwriteitem	-10238
>\	-10239
arc	-10240
too	-10241
ffff	-10242
gain	-10243
▁evt	-10244
litem	-10245
fileid	-10246
▁adapt	-10247
▁among	-10248
▁flink	-10249
▁stand	-10250
atindex	-10251
isblank	-10252
loutput	-10253
attached	-10254
beanname	-10255
discover	-10256
localvar	-10257
▁fetched	-10258
criterion	-10259
zoneinner	-10260
▁favorite	-10261
▁reported	-10262
invalidate	-10263
▁callbacks	-10264
balanceinfo	-10265
fieldaccess	-10266
▁formatting	-10267
▁getversion	-10268
getparentfile	-10269
▁randomaccess	-10270
3_	-10271
fut	-10272
olt	-10273
esch	-10274
jpeg	-10275
▁arc	-10276
resul	-10277
ricon	-10278
shuff	-10279
tives	-10280
▁yaml	-10281
mkdirs	-10282
▁minim	-10283
▁sizes	-10284
ardless	-10285
erevent	-10286
getinit	-10287
limited	-10288
▁deltas	-10289
▁groovy	-10290
loptions	-10291
multibit	-10292
workunit	-10293
▁depends	-10294
▁endtime	-10295
anularity	-10296
datastore	-10297
▁rollback	-10298
interrupti	-10299
▁dependent	-10300
cachewriter	-10301
indexreader	-10302
queryresult	-10303
creationtime	-10304
▁descriptors	-10305
getrepository	-10306
▁organization	-10307
queueprocessor	-10308
attributestoget	-10309
▁dl	-10310
hold	-10311
iased	-10312
jetty	-10313
reach	-10314
analyz	-10315
atient	-10316
scalar	-10317
partner	-10318
quality	-10319
▁closer	-10320
getscope	-10321
lessthan	-10322
physical	-10323
▁imports	-10324
▁tracker	-10325
getmillis	-10326
metadatab	-10327
odatabase	-10328
▁indexout	-10329
▁invoking	-10330
▁kaleolog	-10331
▁produced	-10332
classindex	-10333
▁monoerror	-10334
▁namespaced	-10335
▁ptransform	-10336
▁corresponds	-10337
customization	-10338
batchwriteitem	-10339
resourceprimkey	-10340
▁periodprovider	-10341
annotatedelement	-10342
▁annotationutils	-10343
:\	-10344
(0.	-10345
32.	-10346
demo	-10347
upon	-10348
walk	-10349
▁nex	-10350
▁qty	-10351
▁txn	-10352
▁clip	-10353
▁corf	-10354
▁kill	-10355
faulti	-10356
▁namet	-10357
▁uniqu	-10358
greater	-10359
reducer	-10360
▁scored	-10361
adapters	-10362
omanager	-10363
▁getlong	-10364
▁retries	-10365
▁watcher	-10366
persisted	-10367
translate	-10368
treatment	-10369
▁announce	-10370
▁assembly	-10371
▁chaining	-10372
▁getstate	-10373
getresults	-10374
setvisible	-10375
▁mainframe	-10376
▁modifying	-10377
dexpression	-10378
idgenerator	-10379
osgiservice	-10380
▁completely	-10381
executequery	-10382
getpackagename	-10383
existsexception	-10384
▁declaringclass	-10385
▁securitymanager	-10386
na	-10387
!",	-10388
oki	-10389
zon	-10390
▁tm	-10391
▁wt	-10392
bidx	-10393
▁cpu	-10394
▁del	-10395
intro	-10396
pause	-10397
▁jaxb	-10398
▁vlan	-10399
ithmet	-10400
▁eamdb	-10401
▁moves	-10402
▁white	-10403
bytebuf	-10404
escaped	-10405
▁thrift	-10406
classdoc	-10407
▁folders	-10408
▁indexing	-10409
▁nextpage	-10410
▁rootpath	-10411
schemaname	-10412
strategies	-10413
▁bytesread	-10414
▁clustering	-10415
▁indicating	-10416
▁linenumber	-10417
logexception	-10418
templatename	-10419
▁observation	-10420
propertyvalue	-10421
▁servicefuture	-10422
actionprofileid	-10423
cacheloaderwrite	-10424
temporalaccessor	-10425
-2	-10426
ato	-10427
")),	-10428
ersa	-10429
0000,	-10430
logcb	-10431
outer	-10432
stick	-10433
avatar	-10434
icture	-10435
oftype	-10436
▁mysql	-10437
▁ports	-10438
ownload	-10439
▁retain	-10440
▁unable	-10441
presence	-10442
scenario	-10443
anonymous	-10444
statistic	-10445
▁daycount	-10446
▁getfield	-10447
▁toreturn	-10448
submission	-10449
currenthash	-10450
getlanguage	-10451
getposition	-10452
requirement	-10453
▁abstractfile	-10454
▁temporalunit	-10455
beanidentifier	-10456
=?	-10457
>[]	-10458
lef	-10459
ove	-10460
pid	-10461
▁"&	-10462
▁=>	-10463
.0);	-10464
ette	-10465
gene	-10466
▁mos	-10467
▁ont	-10468
▁who	-10469
terex	-10470
▁\"";	-10471
ewidth	-10472
openid	-10473
verted	-10474
▁moved	-10475
▁mpack	-10476
▁msgid	-10477
▁shown	-10478
formula	-10479
▁causes	-10480
econtact	-10481
renabled	-10482
▁getroot	-10483
▁passing	-10484
cacheutil	-10485
idocument	-10486
modeltype	-10487
observers	-10488
putstream	-10489
setoutput	-10490
▁building	-10491
▁comments	-10492
accesstier	-10493
systeminfo	-10494
▁datetimes	-10495
fingerprint	-10496
▁generating	-10497
▁namespaces	-10498
perexception	-10499
▁quaternionf	-10500
typedescriptor	-10501
▁atomicinteger	-10502
▁expectedintents	-10503
gy	-10504
fri	-10505
ram	-10506
rack	-10507
tech	-10508
emode	-10509
given	-10510
ursor	-10511
▁deck	-10512
ascade	-10513
findex	-10514
isdone	-10515
itized	-10516
ustomp	-10517
▁notes	-10518
▁refer	-10519
contour	-10520
newline	-10521
workers	-10522
▁fluent	-10523
▁subnet	-10524
combiner	-10525
overview	-10526
testdata	-10527
▁meaning	-10528
▁rectang	-10529
bytecount	-10530
▁articles	-10531
▁concaten	-10532
▁estimate	-10533
▁integers	-10534
▁pageblob	-10535
▁textview	-10536
▁imageview	-10537
columnindex	-10538
mediaperiod	-10539
queryparams	-10540
▁suggestion	-10541
descrbuilder	-10542
etransaction	-10543
isannotation	-10544
castexception	-10545
getfirstchild	-10546
▁restresponse	-10547
pd	-10548
boss	-10549
viou	-10550
▁tre	-10551
imple	-10552
lapse	-10553
yport	-10554
▁slow	-10555
("/");	-10556
addata	-10557
planar	-10558
▁nativ	-10559
▁swing	-10560
chanism	-10561
▁emitter	-10562
▁flatten	-10563
▁limited	-10564
minusdays	-10565
▁swaption	-10566
delegation	-10567
timeseries	-10568
indexedword	-10569
optimization	-10570
▁accountname	-10571
compatibility	-10572
fakeloaderwriter	-10573
/>	-10574
5)	-10575
bg	-10576
pen	-10577
++){	-10578
1234	-10579
cube	-10580
leth	-10581
▁201	-10582
▁rmi	-10583
arner	-10584
ctree	-10585
icast	-10586
lated	-10587
works	-10588
▁tabs	-10589
▁tell	-10590
hashes	-10591
▁camel	-10592
▁caret	-10593
▁relay	-10594
▁limits	-10595
▁margin	-10596
targetid	-10597
cachewrit	-10598
ferenceiq	-10599
▁getlocal	-10600
▁intended	-10601
▁associate	-10602
▁datetimer	-10603
▁indexoutof	-10604
▁typemirror	-10605
fromresponse	-10606
▁indexwriter	-10607
▁setmetadata	-10608
elasticsearch	-10609
interruptibly	-10610
riconferenceiq	-10611
▁serviceloader	-10612
nl	-10613
za	-10614
hoc	-10615
mob	-10616
▁tk	-10617
emer	-10618
lest	-10619
▁aux	-10620
▁bib	-10621
▁pie	-10622
▁sle	-10623
▁zer	-10624
▁}).	-10625
econf	-10626
ismet	-10627
itect	-10628
renot	-10629
▁away	-10630
▁bias	-10631
lision	-10632
online	-10633
▁anode	-10634
▁gscale	-10635
computer	-10636
failures	-10637
mcontext	-10638
▁bundles	-10639
▁grouped	-10640
▁neither	-10641
▁usecase	-10642
overwrite	-10643
watchlist	-10644
▁datasets	-10645
federation	-10646
accounttype	-10647
deserialize	-10648
queueclient	-10649
▁appendable	-10650
ferexception	-10651
volumeresult	-10652
notifications	-10653
queryparameters	-10654
▁withdomainname	-10655
__	-10656
}'	-10657
ifs	-10658
sep	-10659
trx	-10660
(4);	-10661
(6);	-10662
near	-10663
ropy	-10664
▁?>>	-10665
▁ins	-10666
▁{0}	-10667
inder	-10668
olicy	-10669
▁bson	-10670
▁four	-10671
appear	-10672
▁flash	-10673
caching	-10674
substit	-10675
▁scoped	-10676
▁follows	-10677
developer	-10678
filenames	-10679
whitelist	-10680
▁nodetype	-10681
▁readonly	-10682
rollbackto	-10683
▁metadatas	-10684
▁chromosome	-10685
▁serializes	-10686
▁throwables	-10687
provisioning	-10688
▁blobrequest	-10689
▁participant	-10690
▁typeelement	-10691
▁modelandview	-10692
operationsimpl	-10693
bib	-10694
sid	-10695
spi	-10696
udp	-10697
▁dd	-10698
▁tt	-10699
yang	-10700
▁jid	-10701
▁ski	-10702
etics	-10703
while	-10704
▁kafk	-10705
▁tech	-10706
setbit	-10707
stoadd	-10708
termid	-10709
▁datal	-10710
▁linux	-10711
▁offer	-10712
▁rolap	-10713
▁setis	-10714
▁queues	-10715
▁reconc	-10716
exported	-10717
jenetics	-10718
traverse	-10719
▁notnull	-10720
▁ranking	-10721
▁toolbar	-10722
▁verbose	-10723
▁dynamodb	-10724
▁purchase	-10725
▁rendered	-10726
privatekey	-10727
readobject	-10728
▁efficient	-10729
▁reporting	-10730
▁stopwatch	-10731
▁jcomponent	-10732
▁paramtypes	-10733
subdirectory	-10734
▁ibindingset	-10735
▁tokenstream	-10736
▁coordination	-10737
2:	-10738
={	-10739
xq	-10740
2),	-10741
abb	-10742
▁mq	-10743
agon	-10744
disp	-10745
rang	-10746
igned	-10747
isode	-10748
opent	-10749
seton	-10750
▁pipe	-10751
▁tmpl	-10752
always	-10753
credit	-10754
issame	-10755
thrift	-10756
▁legal	-10757
entryid	-10758
handled	-10759
origins	-10760
outputs	-10761
rovider	-10762
▁phaser	-10763
▁groupby	-10764
▁hasnext	-10765
▁easymock	-10766
▁listnext	-10767
▁rounding	-10768
▁projectid	-10769
texpression	-10770
getnamespace	-10771
▁jsonexception	-10772
▁packagemanager	-10773
dv	-10774
nr	-10775
../	-10776
dro	-10777
sys	-10778
()==	-10779
aret	-10780
laps	-10781
mosa	-10782
pojo	-10783
lexer	-10784
roots	-10785
typet	-10786
▁idle	-10787
▁tmpw	-10788
▁volt	-10789
camera	-10790
getlin	-10791
lugins	-10792
regexp	-10793
scorer	-10794
suppor	-10795
▁peers	-10796
0000000	-10797
rebuild	-10798
▁manual	-10799
commander	-10800
ersistent	-10801
▁classdoc	-10802
accesstype	-10803
databuffer	-10804
etransform	-10805
▁hibernate	-10806
▁accesstoken	-10807
]]	-10808
mpt	-10809
defs	-10810
gson	-10811
prun	-10812
pull	-10813
tone	-10814
▁ttl	-10815
mysql	-10816
shell	-10817
▁verb	-10818
enodes	-10819
naming	-10820
packag	-10821
▁getad	-10822
iprange	-10823
mobject	-10824
▁[{}]",	-10825
▁triple	-10826
acquired	-10827
datasets	-10828
matchers	-10829
tomahawk	-10830
▁inherit	-10831
▁natural	-10832
▁removal	-10833
comparing	-10834
▁protobuf	-10835
▁batchsize	-10836
etableinner	-10837
▁percentage	-10838
cmsexception	-10839
forkjointask	-10840
▁millisecond	-10841
offsetposition	-10842
valueexception	-10843
"}	-10844
xp	-10845
jvm	-10846
▁nl	-10847
++);	-10848
alla	-10849
loss	-10850
txid	-10851
umsg	-10852
▁cep	-10853
▁rem	-10854
▁seem	-10855
curves	-10856
trainc	-10857
linkers	-10858
mallest	-10859
▁packed	-10860
isclosed	-10861
provides	-10862
toremove	-10863
▁findall	-10864
▁formula	-10865
▁printer	-10866
▁reduced	-10867
createdby	-10868
eclusters	-10869
inputfile	-10870
putstring	-10871
recommend	-10872
setheader	-10873
texecutor	-10874
▁excludes	-10875
▁increase	-10876
▁lastband	-10877
transitive	-10878
▁conflicts	-10879
▁startband	-10880
blockdevice	-10881
columnnames	-10882
selfderived	-10883
▁filereader	-10884
▁fromstream	-10885
▁threadpool	-10886
backpressure	-10887
clusterstate	-10888
▁shareclient	-10889
replacefailure	-10890
▁fileasyncclient	-10891
nav	-10892
▁tv	-10893
_2);	-10894
issh	-10895
rels	-10896
tere	-10897
▁'/'	-10898
▁pce	-10899
achin	-10900
arrow	-10901
witch	-10902
▁grow	-10903
filled	-10904
▁seqno	-10905
clients	-10906
graphic	-10907
loption	-10908
oformat	-10909
surface	-10910
▁aspect	-10911
▁bvalue	-10912
▁dspace	-10913
▁queued	-10914
accuracy	-10915
artition	-10916
▁opening	-10917
enclosing	-10918
tokentype	-10919
predicates	-10920
▁automatic	-10921
icomponents	-10922
sensitivity	-10923
▁arraydeque	-10924
▁tokentypes	-10925
codesnippets	-10926
▁mediaperiod	-10927
▁errorhandler	-10928
requestcontext	-10929
instancemanager	-10930
resourcerequest	-10931
▁basexexception	-10932
valuesensitivity	-10933
▁generalsecurity	-10934
.1	-10935
▁pc	-10936
inel	-10937
saml	-10938
yaml	-10939
▁txt	-10940
(2));	-10941
macro	-10942
contig	-10943
fileto	-10944
lector	-10945
webapp	-10946
▁fired	-10947
▁klass	-10948
▁marks	-10949
bitrate	-10950
bracket	-10951
imports	-10952
invoice	-10953
reflect	-10954
ssource	-10955
▁logout	-10956
toptions	-10957
▁encodes	-10958
▁epsilon	-10959
▁operate	-10960
▁recurse	-10961
isrunning	-10962
setparent	-10963
stodelete	-10964
▁filetype	-10965
▁geopoint	-10966
▁ignoring	-10967
▁rootnode	-10968
inprogress	-10969
▁getconfig	-10970
▁iterating	-10971
▁undefined	-10972
▁principals	-10973
▁stringlist	-10974
batchgetitem	-10975
▁responsible	-10976
ctrubycontent	-10977
onlyrequested	-10978
▁configurable	-10979
▁defaulttimer	-10980
▁transactional	-10981
▁lazypersistent	-10982
ctcustomxmlblock	-10983
64(	-10984
▁ak	-10985
▁mu	-10986
asks	-10987
docx	-10988
▁npe	-10989
there	-10990
▁getx	-10991
around	-10992
couldn	-10993
divide	-10994
oframe	-10995
scaled	-10996
sorter	-10997
▁liter	-10998
attribs	-10999
errorto	-11000
isition	-11001
▁curves	-11002
ecluster	-11003
explicit	-11004
getcolor	-11005
gradient	-11006
problems	-11007
▁getitem	-11008
▁isempty	-11009
▁watched	-11010
econsumer	-11011
etostring	-11012
getfields	-11013
getsecond	-11014
onenumber	-11015
▁contexts	-11016
▁mismatch	-11017
mediatypes	-11018
setleaseid	-11019
▁satisfies	-11020
▁triggered	-11021
clusternode	-11022
mpreference	-11023
currentproject	-11024
threadpoolsize	-11025
connectionstring	-11026
('"	-11027
vip	-11028
emit	-11029
soft	-11030
▁lag	-11031
abric	-11032
drian	-11033
initi	-11034
limin	-11035
needs	-11036
photo	-11037
ypool	-11038
▁dirs	-11039
▁goog	-11040
▁mosa	-11041
▁osgi	-11042
ssince	-11043
viding	-11044
▁datap	-11045
▁light	-11046
▁mongo	-11047
▁trakt	-11048
descend	-11049
english	-11050
ingtype	-11051
parency	-11052
▁jmeter	-11053
▁tofind	-11054
▁totals	-11055
▁assumes	-11056
▁writeto	-11057
formatted	-11058
termsenum	-11059
▁purposes	-11060
abilityjob	-11061
equivalent	-11062
objecttype	-11063
▁publickey	-11064
calculation	-11065
dsauthtoken	-11066
econstraint	-11067
getnumberof	-11068
identifiers	-11069
sizeinbytes	-11070
▁convention	-11071
▁recordtype	-11072
▁inputsource	-11073
▁operationid	-11074
▁potentially	-11075
annotatedtype	-11076
▁stringreader	-11077
▁priorityqueue	-11078
▁requestoptions	-11079
connecteddevices	-11080
_1	-11081
fqn	-11082
ptr	-11083
▁om	-11084
▁xp	-11085
rint	-11086
▁"")	-11087
▁acl	-11088
▁tap	-11089
frome	-11090
▁(;;)	-11091
idgets	-11092
inding	-11093
intvar	-11094
levent	-11095
mosaic	-11096
trange	-11097
getmain	-11098
nominal	-11099
skylark	-11100
spacing	-11101
▁circle	-11102
▁online	-11103
▁supply	-11104
mcurrent	-11105
▁workers	-11106
registers	-11107
stylename	-11108
isnotblank	-11109
sourcepath	-11110
sourcetype	-11111
▁unmarshal	-11112
getcurrency	-11113
isinterface	-11114
requesttype	-11115
eventhandler	-11116
taskexecutor	-11117
parameterized	-11118
▁functionality	-11119
("'	-11120
▁24	-11121
perm	-11122
▁iff	-11123
▁sel	-11124
above	-11125
alone	-11126
textr	-11127
hostid	-11128
▁genie	-11129
getfrom	-11130
globals	-11131
skipped	-11132
ternals	-11133
▁unused	-11134
builders	-11135
checkbox	-11136
interpre	-11137
lasticip	-11138
valuemap	-11139
▁portion	-11140
queuename	-11141
▁boundary	-11142
▁volatile	-11143
javamethod	-11144
profilearn	-11145
▁identical	-11146
datasources	-11147
onsubscribe	-11148
parsedouble	-11149
sslkeystore	-11150
▁allindices	-11151
▁getelement	-11152
▁splitbrain	-11153
workerclient	-11154
▁classnameid	-11155
multipartpart	-11156
getcallerclass	-11157
2}	-11158
tre	-11159
xxx	-11160
▁xw	-11161
mart	-11162
▁vfs	-11163
aking	-11164
forex	-11165
yield	-11166
▁0));	-11167
▁ctor	-11168
▁dual	-11169
▁perf	-11170
▁pret	-11171
earing	-11172
sparse	-11173
▁clust	-11174
▁macro	-11175
▁chosen	-11176
▁corner	-11177
▁enumer	-11178
outputto	-11179
concatmap	-11180
detailast	-11181
semicolon	-11182
separated	-11183
▁instream	-11184
▁outbound	-11185
▁quantity	-11186
▁redshift	-11187
▁tracking	-11188
breadcrumb	-11189
getaccount	-11190
loomfilter	-11191
navigation	-11192
recognized	-11193
▁semaphore	-11194
▁succeeded	-11195
dataprovider	-11196
volatilities	-11197
contactsource	-11198
▁intersection	-11199
▁requirements	-11200
actionlistener	-11201
gettransaction	-11202
routetableinner	-11203
▁acceptlanguage	-11204
jc	-11205
cdf	-11206
ales	-11207
aval	-11208
elet	-11209
ewah	-11210
ptic	-11211
▁sys	-11212
▁tex	-11213
icons	-11214
ipout	-11215
posts	-11216
▁0");	-11217
▁atts	-11218
▁pane	-11219
aspect	-11220
getenv	-11221
getsub	-11222
poolid	-11223
queryp	-11224
queues	-11225
rences	-11226
typath	-11227
▁jetty	-11228
▁premi	-11229
aligned	-11230
findbyp	-11231
foreign	-11232
positor	-11233
unnamed	-11234
▁discre	-11235
▁layers	-11236
▁mosaic	-11237
▁scores	-11238
▁setuse	-11239
basename	-11240
canceled	-11241
loglevel	-11242
▁addcard	-11243
▁inverse	-11244
▁minsize	-11245
▁parsers	-11246
conflicts	-11247
▁kerberos	-11248
createfile	-11249
▁bandwidth	-11250
contributor	-11251
▁dispatched	-11252
▁keyversion	-11253
▁transforms	-11254
descriptions	-11255
unauthorized	-11256
formatsymbols	-11257
getinterfaces	-11258
xpressiontree	-11259
▁entitymanager	-11260
alo	-11261
tit	-11262
turn	-11263
▁*")	-11264
▁raf	-11265
anese	-11266
getby	-11267
crypto	-11268
peated	-11269
rotate	-11270
timage	-11271
▁")");	-11272
▁adder	-11273
▁plane	-11274
▁scans	-11275
apanese	-11276
limiter	-11277
sitemap	-11278
▁keyset	-11279
▁realms	-11280
embedded	-11281
indexing	-11282
overload	-11283
ryptions	-11284
tempfile	-11285
▁operand	-11286
▁permits	-11287
▁rounded	-11288
outstream	-11289
workplace	-11290
dayofmonth	-11291
emultipart	-11292
▁intersect	-11293
▁unarrived	-11294
▁uninstall	-11295
isprimitive	-11296
▁tokenimage	-11297
expressroute	-11298
drivermanager	-11299
emultipartupload	-11300
10.	-11301
▁40	-11302
▁hy	-11303
corf	-11304
quad	-11305
ssip	-11306
▁eof	-11307
▁smr	-11308
(10);	-11309
flowr	-11310
keyed	-11311
▁proc	-11312
connec	-11313
viouss	-11314
▁shell	-11315
gallery	-11316
generat	-11317
gettest	-11318
grouped	-11319
istance	-11320
setsize	-11321
▁entryp	-11322
▁produc	-11323
▁tester	-11324
compiled	-11325
▁cleaned	-11326
▁looking	-11327
▁picture	-11328
▁rxjavap	-11329
neighbors	-11330
▁equality	-11331
▁pipeconf	-11332
setdefault	-11333
▁empirical	-11334
▁indexmean	-11335
▁newvector	-11336
getselected	-11337
lexpression	-11338
ubscription	-11339
ypermission	-11340
▁processors	-11341
ryptionscope	-11342
▁columnindex	-11343
▁constructed	-11344
afficselector	-11345
confighistory	-11346
eperexception	-11347
▁outputbuffer	-11348
ancesavailable	-11349
getdisplayname	-11350
▁rxjavaplugins	-11351
deliverychannel	-11352
fileasyncclient	-11353
-"	-11354
agg	-11355
▁5;	-11356
cors	-11357
iome	-11358
obit	-11359
yphen	-11360
<>());	-11361
define	-11362
recise	-11363
storag	-11364
▁rowid	-11365
▁viter	-11366
factors	-11367
javadoc	-11368
filament	-11369
neighbor	-11370
vertexid	-11371
▁deliver	-11372
▁enddate	-11373
▁inbound	-11374
▁recycle	-11375
alseconds	-11376
encryptor	-11377
nonematch	-11378
thumbnail	-11379
withvalue	-11380
▁forwards	-11381
▁searcher	-11382
▁upstream	-11383
concatwith	-11384
▁rendering	-11385
▁searching	-11386
▁annotators	-11387
immutablemap	-11388
readexecutor	-11389
▁quaterniond	-11390
parametertype	-11391
▁componentname	-11392
methodinvocation	-11393
▁resourcemanager	-11394
_1,	-11395
▁mc	-11396
()+"	-11397
wake	-11398
clust	-11399
iname	-11400
xffff	-11401
▁avro	-11402
▁bidx	-11403
▁shor	-11404
("/"))	-11405
decryp	-11406
isfine	-11407
iswarn	-11408
likely	-11409
pooled	-11410
ystate	-11411
▁{}.",	-11412
ruleset	-11413
unicode	-11414
▁iofile	-11415
▁newval	-11416
ciphersu	-11417
fileinfo	-11418
incoming	-11419
returned	-11420
▁locally	-11421
▁streame	-11422
activated	-11423
keepalive	-11424
▁displays	-11425
▁querypos	-11426
▁statuses	-11427
difference	-11428
▁alternate	-11429
▁behaviour	-11430
performance	-11431
probability	-11432
▁databuffer	-11433
▁delegation	-11434
▁findbykiti	-11435
▁getwrapped	-11436
▁sourcetype	-11437
getlocalized	-11438
routingtable	-11439
▁datetimerfc	-11440
▁mergepolicy	-11441
ctmarkuprange	-11442
isfineenabled	-11443
iswarnenabled	-11444
▁tagstoupdate	-11445
▁trainingdata	-11446
▁multispectral	-11447
▁smbproperties	-11448
▁pageparameters	-11449
▁virtualnetwork	-11450
▁typeinformation	-11451
ari	-11452
iff	-11453
rsa	-11454
▁lw	-11455
0}",	-11456
[2];	-11457
cale	-11458
ipul	-11459
kafk	-11460
▁1),	-11461
▁agg	-11462
▁iam	-11463
▁tsk	-11464
('.',	-11465
▁buil	-11466
▁cart	-11467
▁isol	-11468
groovy	-11469
strong	-11470
applied	-11471
findbyr	-11472
ivename	-11473
addchild	-11474
getstack	-11475
imestamp	-11476
isstatic	-11477
readlong	-11478
setcolor	-11479
▁circuit	-11480
▁findbyu	-11481
overrides	-11482
▁prefetch	-11483
▁preserve	-11484
▁problems	-11485
onassembly	-11486
▁getsecret	-11487
getdatabase	-11488
▁clustername	-11489
interfacename	-11490
pathexception	-11491
subscriptions	-11492
▁columnfamily	-11493
▁currencypair	-11494
getcontenttype	-11495
▁methodreference	-11496
uv	-11497
lna	-11498
rad	-11499
smr	-11500
sso	-11501
▁qp	-11502
▁zw	-11503
aled	-11504
odis	-11505
▁"-"	-11506
▁>{@	-11507
▁gdx	-11508
arams	-11509
celer	-11510
scrol	-11511
cmsxml	-11512
▁".");	-11513
barline	-11514
datakey	-11515
tematch	-11516
▁ending	-11517
▁simpli	-11518
indexname	-11519
milestone	-11520
▁affinity	-11521
▁bytecode	-11522
▁convertto	-11523
conceptname	-11524
▁likelihood	-11525
incompatible	-11526
▁denominator	-11527
▁getattribute	-11528
▁atomicboolean	-11529
blobhttpheaders	-11530
.\	-11531
5;	-11532
<>	-11533
ndx	-11534
owe	-11535
rhs	-11536
▁"*	-11537
+1);	-11538
binf	-11539
rext	-11540
rink	-11541
▁alg	-11542
▁smo	-11543
icker	-11544
sanit	-11545
acypro	-11546
iclass	-11547
▁maven	-11548
▁posts	-11549
atetime	-11550
entrant	-11551
▁itemid	-11552
▁resize	-11553
▁silent	-11554
isolated	-11555
prefetch	-11556
companyid	-11557
getparams	-11558
▁geometry	-11559
▁normally	-11560
▁outgoing	-11561
streamname	-11562
setkeystore	-11563
▁transforme	-11564
▁amounttoadd	-11565
applicationid	-11566
▁combinations	-11567
▁intermediate	-11568
currenthashmap	-11569
▁costconstraint	-11570
▁reflectionutils	-11571
()]	-11572
cmp	-11573
enix	-11574
gone	-11575
team	-11576
▁4);	-11577
▁tik	-11578
fluid	-11579
scach	-11580
▁baos	-11581
▁ints	-11582
▁noop	-11583
("#"))	-11584
<?>...	-11585
flavor	-11586
gether	-11587
lenium	-11588
logout	-11589
warded	-11590
▁gives	-11591
▁maker	-11592
▁skill	-11593
▁subtr	-11594
▁testr	-11595
categor	-11596
checkfor	-11597
itecture	-11598
validity	-11599
▁torrent	-11600
▁tracing	-11601
collapsed	-11602
forbidden	-11603
▁changing	-11604
▁conflict	-11605
▁notional	-11606
▁rejected	-11607
characters	-11608
opensocial	-11609
▁consumers	-11610
▁indicator	-11611
▁potential	-11612
arrayequals	-11613
granttokens	-11614
tohexstring	-11615
▁secretname	-11616
closequietly	-11617
requirements	-11618
removefailure	-11619
transactional	-11620
▁optionstring	-11621
crawlingconfig	-11622
ewahcompressed	-11623
compilationunit	-11624
serverexception	-11625
****************	-11626
▁modulereference	-11627
aft	-11628
▁jm	-11629
▁ll	-11630
2");	-11631
apim	-11632
cred	-11633
flip	-11634
gzip	-11635
imes	-11636
irec	-11637
skin	-11638
dummy	-11639
iring	-11640
runid	-11641
stree	-11642
▁hits	-11643
idence	-11644
thetic	-11645
▁pause	-11646
▁stick	-11647
inomial	-11648
pokemon	-11649
tholder	-11650
▁phrase	-11651
▁reject	-11652
▁square	-11653
jobstate	-11654
mismatch	-11655
▁infinite	-11656
▁postgres	-11657
▁unsigned	-11658
methodtype	-11659
objectname	-11660
▁insertion	-11661
▁successor	-11662
▁whitelist	-11663
sendmessage	-11664
▁terminated	-11665
applications	-11666
continuation	-11667
▁interleaved	-11668
▁restrequest	-11669
▁virtualfile	-11670
▁pathsegments	-11671
▁ri	-11672
obox	-11673
viol	-11674
▁bag	-11675
▁rsa	-11676
▁tle	-11677
amage	-11678
btree	-11679
etite	-11680
iddhi	-11681
specs	-11682
unity	-11683
▁hasn	-11684
▁isis	-11685
▁nifi	-11686
dspace	-11687
orders	-11688
▁speed	-11689
locales	-11690
operand	-11691
utility	-11692
endarray	-11693
interact	-11694
loggroup	-11695
tenantid	-11696
▁sqltype	-11697
ballerina	-11698
createnew	-11699
ratelimit	-11700
▁accessed	-11701
▁assuming	-11702
▁wordstos	-11703
acyprotect	-11704
rolestatus	-11705
▁objective	-11706
▁snapshots	-11707
recursively	-11708
wtssplitter	-11709
▁deployments	-11710
▁integration	-11711
▁wtssplitter	-11712
annotatortest	-11713
instantiation	-11714
ptbinvertible	-11715
▁ctsdtcontent	-11716
▁onpreference	-11717
▁ptbinvertible	-11718
batchprediction	-11719
cleanxmlalltags	-11720
▁currencyamount	-11721
cleanxmlsometags	-11722
ptbnotinvertible	-11723
▁cleanxmlalltags	-11724
wf	-11725
bay	-11726
▁dv	-11727
▁sf	-11728
.0.0	-11729
\"",	-11730
arry	-11731
blur	-11732
ingu	-11733
isin	-11734
nets	-11735
▁ack	-11736
▁hop	-11737
magic	-11738
quota	-11739
skill	-11740
▁mand	-11741
ascrip	-11742
drawer	-11743
granted	-11744
regions	-11745
▁binders	-11746
▁getbase	-11747
▁settype	-11748
permanent	-11749
readcount	-11750
topicname	-11751
▁orchestr	-11752
inspection	-11753
nextsetbit	-11754
resulttype	-11755
▁mathutils	-11756
▁descendant	-11757
▁regardless	-11758
▁statuscode	-11759
trainingdata	-11760
▁httpsession	-11761
directorypath	-11762
▁initializing	-11763
failureexception	-11764
du	-11765
hb	-11766
nio	-11767
vml	-11768
www	-11769
▁/=	-11770
▁gt	-11771
'");	-11772
aign	-11773
araf	-11774
cart	-11775
ende	-11776
nums	-11777
▁gam	-11778
atree	-11779
camer	-11780
endof	-11781
loops	-11782
▁doff	-11783
▁held	-11784
valued	-11785
writes	-11786
▁ratio	-11787
▁third	-11788
accepts	-11789
ampaign	-11790
latency	-11791
lengths	-11792
permits	-11793
▁childs	-11794
▁legend	-11795
▁toggle	-11796
detected	-11797
followed	-11798
ifneeded	-11799
▁basedir	-11800
▁caption	-11801
▁categor	-11802
▁lengths	-11803
▁located	-11804
getschema	-11805
quisition	-11806
▁acceptor	-11807
▁consumes	-11808
▁typeface	-11809
attlefield	-11810
getcounter	-11811
metricname	-11812
▁linkevent	-11813
accumulator	-11814
getduration	-11815
instantiate	-11816
iscancelled	-11817
reactiveseq	-11818
▁atomically	-11819
destinations	-11820
frastructure	-11821
▁lastindexof	-11822
▁testcontext	-11823
▁targetentity	-11824
(":	-11825
vas	-11826
dere	-11827
eets	-11828
goog	-11829
ipes	-11830
rott	-11831
▁che	-11832
▁pod	-11833
alcul	-11834
pager	-11835
phony	-11836
refix	-11837
▁kept	-11838
('.');	-11839
please	-11840
scoped	-11841
unwrap	-11842
bigdata	-11843
hearing	-11844
players	-11845
settime	-11846
▁affect	-11847
▁mirror	-11848
▁tracer	-11849
adataset	-11850
ispublic	-11851
rolename	-11852
▁periods	-11853
isdefault	-11854
semantics	-11855
▁splitter	-11856
▁together	-11857
▁enclosing	-11858
▁replacing	-11859
▁watermark	-11860
buildtarget	-11861
▁preserving	-11862
getdictionary	-11863
graphdatabase	-11864
▁subscriptions	-11865
▁eventprocessor	-11866
▁setdescription	-11867
▁topicprocessor	-11868
rtp	-11869
▁'_	-11870
(10,	-11871
cand	-11872
igen	-11873
▁few	-11874
arend	-11875
cooki	-11876
fleet	-11877
olver	-11878
toint	-11879
▁goal	-11880
tolong	-11881
traces	-11882
▁pivot	-11883
▁treat	-11884
atleast	-11885
getbase	-11886
ingroup	-11887
mbstone	-11888
repaint	-11889
sscheme	-11890
▁histor	-11891
advanced	-11892
variants	-11893
▁selects	-11894
▁varnode	-11895
getnumber	-11896
warehouse	-11897
▁receives	-11898
▁twophase	-11899
▁whenever	-11900
blackboard	-11901
bytypelock	-11902
converters	-11903
dexecution	-11904
ervicecall	-11905
positories	-11906
▁evaluated	-11907
▁guarantee	-11908
▁iterators	-11909
▁presenter	-11910
▁reentrant	-11911
bytechannel	-11912
grandparent	-11913
initiatejob	-11914
accesscontrol	-11915
updategateway	-11916
▁batchgetitem	-11917
queryexception	-11918
▁applicationid	-11919
▁datainputstream	-11920
6.	-11921
rf	-11922
+",	-11923
ool	-11924
shi	-11925
atec	-11926
cour	-11927
▁fed	-11928
boxes	-11929
rever	-11930
swing	-11931
▁'{}'	-11932
▁alle	-11933
▁wire	-11934
affine	-11935
stypes	-11936
▁guard	-11937
appname	-11938
▁prices	-11939
inmillis	-11940
mapvalue	-11941
▁getdate	-11942
▁newline	-11943
issuccess	-11944
jobstatus	-11945
▁centroid	-11946
▁diagnost	-11947
▁mcontext	-11948
▁downloads	-11949
▁providing	-11950
▁semantics	-11951
elementtype	-11952
mediaplayer	-11953
▁continuous	-11954
▁eventually	-11955
▁guaranteed	-11956
componenttag	-11957
▁completable	-11958
▁stringvalue	-11959
▁suppression	-11960
checkpermission	-11961
incrementandget	-11962
metadatadataset	-11963
getinitparameter	-11964
messageconverter	-11965
44	-11966
6)	-11967
(':	-11968
20;	-11969
afe	-11970
mvc	-11971
xpr	-11972
pres	-11973
slur	-11974
▁'.'	-11975
(1)).	-11976
alter	-11977
execu	-11978
milli	-11979
oenix	-11980
white	-11981
▁lead	-11982
▁prin	-11983
▁priv	-11984
▁undo	-11985
(100);	-11986
attrib	-11987
extend	-11988
facade	-11989
sphere	-11990
topath	-11991
dirpath	-11992
shelper	-11993
▁1000);	-11994
▁taking	-11995
▁xscale	-11996
asession	-11997
etimeout	-11998
ibration	-11999
ransform	-12000
▁appname	-12001
▁latests	-12002
erelement	-12003
etestjava	-12004
otelement	-12005
planation	-12006
readlines	-12007
spacename	-12008
associated	-12009
zoneoffset	-12010
▁exclusion	-12011
▁maxheight	-12012
▁registrar	-12013
deventsource	-12014
▁assignments	-12015
▁partitioner	-12016
getexpression	-12017
▁expectations	-12018
fileattributes	-12019
/2	-12020
40	-12021
lc	-12022
akn	-12023
eof	-12024
hsm	-12025
lif	-12026
uck	-12027
▁iq	-12028
have	-12029
will	-12030
▁htt	-12031
acent	-12032
argui	-12033
atter	-12034
spawn	-12035
▁cash	-12036
▁clon	-12037
blogid	-12038
emonic	-12039
extras	-12040
pageid	-12041
▁colib	-12042
▁major	-12043
atabase	-12044
awriter	-12045
filetype	-12046
fullpath	-12047
getitems	-12048
shandler	-12049
standing	-12050
▁copying	-12051
▁gallery	-12052
▁omitted	-12053
▁reports	-12054
cachename	-12055
messaging	-12056
▁pagesize	-12057
▁releases	-12058
▁zipentry	-12059
aexception	-12060
▁detection	-12061
▁discovery	-12062
▁labelname	-12063
▁powermock	-12064
getmessages	-12065
nanoseconds	-12066
spliterator	-12067
▁duplicates	-12068
▁fromstring	-12069
commandclass	-12070
isochronology	-12071
▁aggregations	-12072
messagelistener	-12073
converterfactory	-12074
32)	-12075
ats	-12076
uzz	-12077
}/{	-12078
▁',	-12079
▁4,	-12080
▁cx	-12081
▁ff	-12082
ancy	-12083
capt	-12084
stra	-12085
autoc	-12086
keies	-12087
▁axes	-12088
▁fold	-12089
▁pres	-12090
arbage	-12091
caught	-12092
detach	-12093
enumer	-12094
opened	-12095
▁spout	-12096
obridge	-12097
▁fileid	-12098
▁negate	-12099
▁reboot	-12100
numfolds	-12101
purchase	-12102
▁analyze	-12103
executors	-12104
getbundle	-12105
primkeies	-12106
truefalse	-12107
utterance	-12108
▁filament	-12109
▁initiate	-12110
appcontext	-12111
fileheader	-12112
▁challenge	-12113
▁getoutput	-12114
deprecation	-12115
multiplying	-12116
▁compliance	-12117
▁converting	-12118
▁functional	-12119
▁instanceid	-12120
▁objecttype	-12121
▁resulttype	-12122
▁tachyonuri	-12123
domainresult	-12124
namespacedid	-12125
▁getmetadata	-12126
ensiblehashmap	-12127
▁executetestjava	-12128
▁initialcapacity	-12129
6);	-12130
bop	-12131
nam	-12132
wad	-12133
▁il	-12134
▁mr	-12135
▁xz	-12136
coll	-12137
▁ist	-12138
▁jmx	-12139
▁numn	-12140
abling	-12141
expire	-12142
▁eager	-12143
<?>>();	-12144
buttons	-12145
loginid	-12146
▁mblock	-12147
▁timers	-12148
bookmark	-12149
getstore	-12150
▁testset	-12151
▁vectors	-12152
appenders	-12153
autorenew	-12154
countdown	-12155
▁skipping	-12156
▁starlark	-12157
▁testdata	-12158
▁velocity	-12159
compaction	-12160
httpstatus	-12161
▁ingestjob	-12162
createtable	-12163
▁truststore	-12164
▁cardinality	-12165
▁elementtype	-12166
▁rotatelocal	-12167
▁favoritesite	-12168
createtempfile	-12169
▁evalexception	-12170
_0	-12171
(10	-12172
iom	-12173
lec	-12174
▁':	-12175
▁mk	-12176
dsdb	-12177
half	-12178
pand	-12179
righ	-12180
thes	-12181
tobj	-12182
▁fun	-12183
impor	-12184
loade	-12185
▁cour	-12186
▁soon	-12187
bigint	-12188
compil	-12189
merges	-12190
obtain	-12191
scores	-12192
▁datat	-12193
▁invol	-12194
▁music	-12195
▁slide	-12196
encrypt	-12197
getwiki	-12198
setmode	-12199
streamp	-12200
▁joined	-12201
chandler	-12202
endindex	-12203
imported	-12204
updating	-12205
▁buckets	-12206
▁findbyr	-12207
▁sibling	-12208
dayofweek	-12209
dbcluster	-12210
▁fullname	-12211
▁retvalue	-12212
artifactid	-12213
webelement	-12214
▁extratree	-12215
▁ipaddress	-12216
▁receiving	-12217
mediasource	-12218
propagation	-12219
▁activation	-12220
▁overriding	-12221
noinspection	-12222
terexception	-12223
mappingrequest	-12224
▁fieldreference	-12225
datetimeaccessor	-12226
secretattributes	-12227
-3	-12228
[3]	-12229
erc	-12230
sam	-12231
uom	-12232
win	-12233
▁32	-12234
▁lef	-12235
▁pgp	-12236
▁tar	-12237
robot	-12238
▁past	-12239
aslong	-12240
borrow	-12241
filing	-12242
imeout	-12243
packed	-12244
▁setad	-12245
jarfile	-12246
lengine	-12247
logfile	-12248
ositive	-12249
▁pubsub	-12250
frompage	-12251
testcase	-12252
textarea	-12253
▁delayed	-12254
different	-12255
getwindow	-12256
ponential	-12257
velopment	-12258
▁baseline	-12259
createfrom	-12260
entitytype	-12261
ildelement	-12262
sthreshold	-12263
▁criterion	-12264
interpreter	-12265
▁dateformat	-12266
synchronized	-12267
▁doublearray	-12268
entitymanager	-12269
▁getcontainer	-12270
unmodifiableset	-12271
>"	-12272
qp	-12273
("*	-12274
bold	-12275
derr	-12276
getv	-12277
intf	-12278
▁({@	-12279
crual	-12280
deriv	-12281
paque	-12282
ubble	-12283
▁gene	-12284
▁nest	-12285
elater	-12286
isjava	-12287
rating	-12288
rinsic	-12289
staves	-12290
▁phone	-12291
▁tools	-12292
rawable	-12293
signing	-12294
▁arrive	-12295
▁drawer	-12296
▁getnew	-12297
groupmap	-12298
readbyte	-12299
unkevent	-12300
▁commits	-12301
benchmark	-12302
imagetype	-12303
▁menuitem	-12304
actiontype	-12305
regression	-12306
thyperlink	-12307
▁docvalues	-12308
▁numerical	-12309
▁operators	-12310
sttruefalse	-12311
triplestore	-12312
▁biconsumer	-12313
▁cacheentry	-12314
▁subscribed	-12315
graphbuilder	-12316
istsreferrer	-12317
workerthread	-12318
▁httpservice	-12319
▁redirection	-12320
paymentperiod	-12321
queryservices	-12322
expectedstatus	-12323
▁contentlength	-12324
▁incidentedgesn	-12325
1[	-12326
-1;	-12327
[];	-12328
xyz	-12329
▁"?	-12330
▁'[	-12331
▁fm	-12332
()!=	-12333
iliz	-12334
ists	-12335
revi	-12336
setx	-12337
▁rid	-12338
beled	-12339
decla	-12340
loyee	-12341
sexpr	-12342
▁retr	-12343
▁team	-12344
itness	-12345
temode	-12346
terror	-12347
complex	-12348
delayed	-12349
▁placed	-12350
▁scaled	-12351
▁staves	-12352
endmonth	-12353
iredends	-12354
restrict	-12355
associate	-12356
getbounds	-12357
notequals	-12358
supertype	-12359
▁machines	-12360
▁storages	-12361
▁valserde	-12362
fieldmapper	-12363
▁occurrence	-12364
ingestmodule	-12365
▁adaptertype	-12366
▁transformed	-12367
enotification	-12368
statusrequest	-12369
sethttpheaders	-12370
deserialization	-12371
multipartupload	-12372
contextexception	-12373
secretproperties	-12374
dup	-12375
elt	-12376
kill	-12377
oday	-12378
ospf	-12379
tabs	-12380
guard	-12381
plash	-12382
valve	-12383
lucene	-12384
motion	-12385
webinf	-12386
▁cname	-12387
▁exper	-12388
▁hello	-12389
▁magic	-12390
tracked	-12391
pagesize	-12392
▁appears	-12393
▁newnode	-12394
▁respond	-12395
▁tldscan	-12396
couchbase	-12397
datamodel	-12398
inseconds	-12399
▁compress	-12400
▁datagram	-12401
▁envelope	-12402
▁fakecach	-12403
isnotempty	-12404
▁mechanism	-12405
▁supertype	-12406
classifiers	-12407
invokelater	-12408
exceptionally	-12409
assertionerror	-12410
attributenames	-12411
blobclientbase	-12412
handlercontext	-12413
getoutputstream	-12414
▁fakecachewriter	-12415
35	-12416
bec	-12417
des	-12418
▁bx	-12419
▁ks	-12420
▁avg	-12421
▁ebs	-12422
▁mav	-12423
▁pid	-12424
▁trx	-12425
aging	-12426
maven	-12427
overr	-12428
rolap	-12429
tover	-12430
channe	-12431
gested	-12432
mevent	-12433
sequal	-12434
withid	-12435
ificant	-12436
rounded	-12437
tsource	-12438
▁crypto	-12439
▁cutoff	-12440
computed	-12441
icluster	-12442
▁dispose	-12443
econtacts	-12444
getlayout	-12445
perations	-12446
saxparser	-12447
semaphore	-12448
▁cosarray	-12449
▁entityid	-12450
▁keyserde	-12451
▁teststep	-12452
population	-12453
▁backtrack	-12454
▁getcolumn	-12455
▁getmethod	-12456
▁keyschema	-12457
▁nestedset	-12458
gethostname	-12459
parseresult	-12460
unavailable	-12461
▁deregister	-12462
▁expirytime	-12463
agentversion	-12464
getavailable	-12465
stringbuffer	-12466
▁displayname	-12467
▁mulemessage	-12468
queuedmessage	-12469
▁outputformat	-12470
identityrequest	-12471
15	-12472
=[	-12473
occ	-12474
▁(2	-12475
▁pq	-12476
▁sx	-12477
3));	-12478
axes	-12479
bond	-12480
cmmo	-12481
msgs	-12482
▁fib	-12483
▁ran	-12484
cores	-12485
dates	-12486
▁cred	-12487
▁ship	-12488
apikey	-12489
maxdoc	-12490
▁seems	-12491
folders	-12492
parsers	-12493
▁maxdoc	-12494
▁opcode	-12495
▁scopes	-12496
▁tensor	-12497
▁tmpstr	-12498
estimate	-12499
extrapar	-12500
forclass	-12501
infoimpl	-12502
▁corrupt	-12503
▁orderby	-12504
dbsession	-12505
getbuffer	-12506
localized	-12507
▁launcher	-12508
▁messaged	-12509
▁multiset	-12510
▁variance	-12511
configrule	-12512
forwarding	-12513
hcpoptions	-12514
hearingaid	-12515
rerrorcode	-12516
sdtcontent	-12517
writebytes	-12518
ingsrequest	-12519
safevarargs	-12520
taskrequest	-12521
▁authorized	-12522
▁setcurrent	-12523
▁similarity	-12524
▁thisclient	-12525
audiomanager	-12526
erecscluster	-12527
describestack	-12528
relatedevents	-12529
▁getclassname	-12530
topicpartition	-12531
describedataset	-12532
instrumentation	-12533
▁requestmapping	-12534
virtualinterface	-12535
60	-12536
ba	-12537
jm	-12538
tm	-12539
(5,	-12540
oll	-12541
udo	-12542
▁20	-12543
▁kb	-12544
▁tz	-12545
edis	-12546
hast	-12547
undo	-12548
▁255	-12549
▁cnt	-12550
(3));	-12551
echar	-12552
guild	-12553
lerdd	-12554
▁dofn	-12555
▁pull	-12556
begint	-12557
imaged	-12558
strike	-12559
▁infer	-12560
▁resul	-12561
▁smile	-12562
▁ticks	-12563
addmods	-12564
celable	-12565
istribu	-12566
▁decide	-12567
▁expire	-12568
cheduled	-12569
managers	-12570
metolive	-12571
▁failing	-12572
addheader	-12573
quicksort	-12574
succeeded	-12575
▁neighbor	-12576
getheaders	-12577
listoption	-12578
taskrunner	-12579
▁cmsobject	-12580
▁mandatory	-12581
accountname	-12582
▁protection	-12583
headerparams	-12584
▁businessday	-12585
▁concurrency	-12586
hashalgorithm	-12587
datasourcename	-12588
filepermission	-12589
▁appendinternal	-12590
_"	-12591
pg	-12592
.0;	-12593
avg	-12594
ebs	-12595
elf	-12596
▁**	-12597
▁hr	-12598
flex	-12599
▁"_"	-12600
alker	-12601
ambig	-12602
notes	-12603
▁jars	-12604
argmax	-12605
middle	-12606
requis	-12607
▁robot	-12608
▁unadj	-12609
barrier	-12610
ertable	-12611
writeto	-12612
▁extent	-12613
▁mdskey	-12614
ecurrent	-12615
getadmin	-12616
settitle	-12617
shuffled	-12618
updatees	-12619
▁effects	-12620
▁players	-12621
▁tabitem	-12622
▁viterbi	-12623
blobstore	-12624
estimated	-12625
getstream	-12626
longitude	-12627
▁authoriz	-12628
▁projects	-12629
inlistener	-12630
▁errorcode	-12631
▁excluding	-12632
▁privilege	-12633
▁treatment	-12634
blangrecord	-12635
partitioned	-12636
serviceimpl	-12637
▁oauthtoken	-12638
▁objectnode	-12639
cmsconstants	-12640
generatevpls	-12641
getordefault	-12642
getreference	-12643
▁dynamically	-12644
indexmetadata	-12645
mappingresult	-12646
saspermission	-12647
settruststore	-12648
▁cachecontrol	-12649
▁clearupdatees	-12650
▁throwexception	-12651
workspacesresult	-12652
ru	-12653
tap	-12654
▁"#	-12655
▁lt	-12656
▁yz	-12657
merg	-12658
oreg	-12659
▁sus	-12660
gamma	-12661
objec	-12662
oweek	-12663
timpl	-12664
▁100;	-12665
▁wasn	-12666
getdoc	-12667
ilover	-12668
pixels	-12669
timing	-12670
▁forms	-12671
▁getre	-12672
▁icons	-12673
▁xdata	-12674
arentry	-12675
getread	-12676
ligible	-12677
produce	-12678
▁getmap	-12679
campaign	-12680
checking	-12681
lassfish	-12682
uniqueid	-12683
▁jarfile	-12684
▁sleeper	-12685
hashtable	-12686
mainframe	-12687
▁getchild	-12688
▁getinput	-12689
▁keywords	-12690
▁nodelist	-12691
▁setstate	-12692
▁workbook	-12693
datastream	-12694
getcommand	-12695
getfeature	-12696
scachesize	-12697
▁collapsed	-12698
▁longitude	-12699
▁onfailure	-12700
▁pathutils	-12701
▁valuation	-12702
assignments	-12703
measurement	-12704
quaterniond	-12705
participants	-12706
protocolinfo	-12707
vaultendpoint	-12708
bsecuritygroup	-12709
handlerfactory	-12710
▁cacheoperation	-12711
ols	-12712
▁']	-12713
▁nf	-12714
▁pv	-12715
▁yw	-12716
city	-12717
dash	-12718
deep	-12719
fers	-12720
▁jan	-12721
compo	-12722
klass	-12723
thost	-12724
ycled	-12725
▁sens	-12726
▁unix	-12727
formul	-12728
getsql	-12729
invert	-12730
lambda	-12731
paused	-12732
tology	-12733
▁grand	-12734
▁peaks	-12735
▁prece	-12736
blocked	-12737
getblob	-12738
getunit	-12739
uristic	-12740
▁caused	-12741
▁degree	-12742
▁padded	-12743
▁pooled	-12744
getlevel	-12745
gettitle	-12746
indexsrc	-12747
profiler	-12748
volution	-12749
▁schemas	-12750
delivered	-12751
fieldinfo	-12752
installed	-12753
▁analyzed	-12754
▁finishes	-12755
▁succeeds	-12756
▁decorated	-12757
▁forbidden	-12758
virtualfile	-12759
layerrequest	-12760
▁appendvalue	-12761
communication	-12762
startactivity	-12763
▁relationname	-12764
▁selectionkey	-12765
▁expectedvalue	-12766
serviceprovider	-12767
▁classifierspec	-12768
indexdescription	-12769
minmaxnormalizer	-12770
▁protocolversion	-12771
2[	-12772
qc	-12773
(4,	-12774
did	-12775
dow	-12776
jms	-12777
roc	-12778
▁5,	-12779
024,	-12780
ligh	-12781
▁{}:	-12782
assum	-12783
colon	-12784
getdb	-12785
listx	-12786
mkdir	-12787
▁face	-12788
affict	-12789
arrier	-12790
childs	-12791
copied	-12792
leaves	-12793
posite	-12794
venode	-12795
▁codes	-12796
▁verif	-12797
allerin	-12798
chooser	-12799
edvalue	-12800
emodule	-12801
engines	-12802
fileurl	-12803
olution	-12804
preason	-12805
▁making	-12806
▁negoti	-12807
▁things	-12808
evaluate	-12809
fromjson	-12810
googleid	-12811
infinity	-12812
loseable	-12813
terminal	-12814
▁becomes	-12815
▁buttons	-12816
▁creater	-12817
▁kstream	-12818
▁lexical	-12819
▁refdata	-12820
▁subtype	-12821
activator	-12822
clusterid	-12823
getremote	-12824
storename	-12825
unarrived	-12826
viewmodel	-12827
▁composed	-12828
datacenter	-12829
restrictto	-12830
valueequal	-12831
▁classfile	-12832
createquery	-12833
deployments	-12834
▁entitytype	-12835
▁filestatus	-12836
addattribute	-12837
listiterator	-12838
shutdownhook	-12839
▁constrained	-12840
▁mcontroller	-12841
▁virtualhost	-12842
configbuilder	-12843
keyproperties	-12844
readercontext	-12845
▁parametermap	-12846
▁decimalformat	-12847
metadatamanager	-12848
▁webapplication	-12849
▁filehttpheaders	-12850
ior	-12851
lem	-12852
▁6,	-12853
▁pb	-12854
amag	-12855
dlob	-12856
href	-12857
misc	-12858
ongo	-12859
cript	-12860
ertag	-12861
hance	-12862
human	-12863
ising	-12864
sktop	-12865
uuids	-12866
▁fine	-12867
▁mary	-12868
()[0];	-12869
asured	-12870
diffid	-12871
graded	-12872
onnext	-12873
poolin	-12874
tively	-12875
▁carry	-12876
▁hyper	-12877
▁impro	-12878
▁pitch	-12879
▁rever	-12880
currenc	-12881
escapes	-12882
iserver	-12883
ranking	-12884
thandle	-12885
tracing	-12886
ithmetic	-12887
startpos	-12888
typeinfo	-12889
▁curator	-12890
▁degrees	-12891
▁earlier	-12892
▁expects	-12893
▁unequal	-12894
enodedata	-12895
mandatory	-12896
thenapply	-12897
▁cepstrum	-12898
▁nodename	-12899
getsubject	-12900
isabsolute	-12901
▁appending	-12902
▁dbmanager	-12903
▁decrement	-12904
▁inputinfo	-12905
▁viewstate	-12906
gatewayname	-12907
▁docbuilder	-12908
▁experiment	-12909
▁resultlist	-12910
functionname	-12911
methodhandle	-12912
▁contextpath	-12913
▁invocations	-12914
▁publication	-12915
getstacktrace	-12916
affictreatment	-12917
▁semanticgraph	-12918
▁xwikidocument	-12919
["	-12920
[4	-12921
fg	-12922
(!(	-12923
1))	-12924
dem	-12925
hcp	-12926
spo	-12927
▁rb	-12928
atus	-12929
▁///	-12930
▁vpc	-12931
trakt	-12932
▁poly	-12933
▁quot	-12934
▁resp	-12935
▁soot	-12936
corner	-12937
tonode	-12938
trying	-12939
▁junit	-12940
▁lexer	-12941
▁press	-12942
entered	-12943
mediaid	-12944
waiters	-12945
▁footer	-12946
▁pushed	-12947
ageclass	-12948
filesize	-12949
ofsecond	-12950
▁predict	-12951
jsonarray	-12952
▁appender	-12953
▁coverage	-12954
▁fetchbyc	-12955
▁smallest	-12956
apprequest	-12957
fieldnames	-12958
redentials	-12959
▁fieldrule	-12960
▁initializ	-12961
▁retention	-12962
gettemplate	-12963
▁volatility	-12964
▁webrequest	-12965
existingargs	-12966
instancestate	-12967
resourcepaths	-12968
▁existingargs	-12969
conversiontype	-12970
getcredentials	-12971
▁probabilities	-12972
underfilesystem	-12973
▁simpleinterval	-12974
dexecutorservice	-12975
moduledescriptor	-12976
▁localcheckpoint	-12977
wp	-12978
("&	-12979
500	-12980
dpp	-12981
jab	-12982
omc	-12983
pts	-12984
udt	-12985
ceil	-12986
echo	-12987
goal	-12988
phab	-12989
sand	-12990
▁jpa	-12991
▁spf	-12992
eness	-12993
sonly	-12994
touse	-12995
ypher	-12996
▁blur	-12997
▁movi	-12998
▁pars	-12999
▁wsdl	-13000
archar	-13001
▁fresh	-13002
inyears	-13003
logdata	-13004
mitives	-13005
viation	-13006
▁canopy	-13007
▁jctree	-13008
setstate	-13009
▁rewrite	-13010
bytesread	-13011
challenge	-13012
logstream	-13013
pricelist	-13014
tldconfig	-13015
▁atomtype	-13016
▁loglevel	-13017
▁periodic	-13018
▁recently	-13019
appearance	-13020
dateoffset	-13021
disposable	-13022
getmethods	-13023
optionpane	-13024
ourcenames	-13025
▁initially	-13026
▁permanent	-13027
▁weighting	-13028
▁blobclient	-13029
instancetype	-13030
▁localparams	-13031
executeupdate	-13032
▁bestsequence	-13033
▁streamoffset	-13034
▁tradingengine	-13035
onclicklistener	-13036
elasticiprequest	-13037
▁datetimebuilder	-13038
sz	-13039
xn	-13040
00)	-13041
1).	-13042
].[	-13043
eps	-13044
gue	-13045
▁'-	-13046
▁aw	-13047
▁wp	-13048
(1))	-13049
▁"="	-13050
▁elt	-13051
▁fcp	-13052
▁phi	-13053
fonts	-13054
seudo	-13055
▁perm	-13056
▁ways	-13057
alline	-13058
argins	-13059
padded	-13060
▁10000	-13061
▁cards	-13062
▁pager	-13063
▁threw	-13064
andwait	-13065
periodic	-13066
poolname	-13067
rootpath	-13068
▁chunked	-13069
▁fetches	-13070
▁println	-13071
buildinfo	-13072
getuserid	-13073
orelseget	-13074
segmentid	-13075
▁tempfile	-13076
▁unableto	-13077
compressor	-13078
getoptions	-13079
sslcontext	-13080
windowsize	-13081
▁computing	-13082
▁getserver	-13083
▁inputfile	-13084
▁messaging	-13085
charsetname	-13086
▁parentnode	-13087
contenttypes	-13088
getdirectory	-13089
getextension	-13090
targetentity	-13091
▁measurement	-13092
▁taskexecutor	-13093
ipoutputstream	-13094
parseleaftoken	-13095
reducefunction	-13096
▁threadcontext	-13097
resourcemanager	-13098
frompageresponse	-13099
timeoutexception	-13100
▁microblogsentry	-13101
}:	-13102
[].	-13103
gmt	-13104
rtl	-13105
▁bc	-13106
▁hp	-13107
▁mx	-13108
(1.0	-13109
bfut	-13110
iden	-13111
xxxx	-13112
▁lay	-13113
bands	-13114
kbest	-13115
mpack	-13116
ycles	-13117
▁istr	-13118
cosmos	-13119
enance	-13120
fabric	-13121
hybrid	-13122
mobile	-13123
▁binar	-13124
▁drain	-13125
▁evict	-13126
▁meter	-13127
bundles	-13128
corners	-13129
dropped	-13130
getlink	-13131
isation	-13132
loglist	-13133
▁facets	-13134
▁listby	-13135
▁vaadin	-13136
deleteon	-13137
ecounter	-13138
getparam	-13139
▁gdigest	-13140
generates	-13141
getdevice	-13142
getplugin	-13143
ssettings	-13144
▁fcpoints	-13145
▁getcache	-13146
▁latitude	-13147
▁newmonth	-13148
▁toplevel	-13149
invocations	-13150
taskmanager	-13151
▁indexation	-13152
▁metricname	-13153
▁uniquename	-13154
admincontact	-13155
checkdeclare	-13156
▁incremental	-13157
▁usercontext	-13158
getreturntype	-13159
lifecyclehook	-13160
sequencemodel	-13161
▁largestindex	-13162
fconfiguration	-13163
kbestsequences	-13164
fragmentmanager	-13165
optionaltimeout	-13166
snapshotrequest	-13167
▁parametertypes	-13168
▁resolvabletype	-13169
▁getcertificates	-13170
)/	-13171
3:	-13172
46	-13173
4:	-13174
fb	-13175
():	-13176
2).	-13177
ctl	-13178
?");	-13179
shap	-13180
uous	-13181
vest	-13182
▁5);	-13183
▁dto	-13184
▁plu	-13185
arily	-13186
datum	-13187
memor	-13188
▁jpeg	-13189
▁tran	-13190
picker	-13191
rogate	-13192
▁acqui	-13193
▁getin	-13194
▁urlen	-13195
cedence	-13196
grammar	-13197
indexin	-13198
typetor	-13199
▁addall	-13200
▁clicks	-13201
▁credit	-13202
▁demand	-13203
deadline	-13204
getscore	-13205
umsgtype	-13206
▁seqtype	-13207
cachespan	-13208
getintent	-13209
odiscover	-13210
▁attaches	-13211
▁collects	-13212
▁doccount	-13213
▁gettable	-13214
▁postings	-13215
▁recycler	-13216
umelements	-13217
▁chararray	-13218
▁filenames	-13219
▁observers	-13220
▁sometimes	-13221
getclientid	-13222
greaterthan	-13223
requestbody	-13224
typewrapper	-13225
▁getsecrets	-13226
▁subtracted	-13227
▁filechannel	-13228
▁basicdbobject	-13229
,(	-13230
fcp	-13231
grp	-13232
▁##	-13233
▁bi	-13234
000,	-13235
dofn	-13236
erro	-13237
onym	-13238
race	-13239
runs	-13240
▁"".	-13241
▁bod	-13242
▁hiv	-13243
▁sns	-13244
arter	-13245
craft	-13246
ister	-13247
offic	-13248
▁(1.0	-13249
▁bolt	-13250
▁bond	-13251
▁gzip	-13252
▁situ	-13253
atings	-13254
pubkey	-13255
street	-13256
wizard	-13257
▁gamma	-13258
fortype	-13259
▁spread	-13260
▁stroke	-13261
callsite	-13262
▁assigns	-13263
▁baseurl	-13264
▁holding	-13265
▁letters	-13266
▁settext	-13267
▁writers	-13268
readwrite	-13269
retriever	-13270
traversal	-13271
unbounded	-13272
▁adapters	-13273
▁translog	-13274
cachewrite	-13275
chronounit	-13276
tlsoptions	-13277
▁dualpivot	-13278
▁eventdata	-13279
▁tempedges	-13280
servicecall	-13281
wikicontext	-13282
▁memberlist	-13283
▁poolconfig	-13284
classpackage	-13285
getprincipal	-13286
precondition	-13287
▁fieldmapper	-13288
blockinstream	-13289
getdescriptor	-13290
▁instantiated	-13291
▁getosgiservice	-13292
omb	-13293
pmd	-13294
▁wb	-13295
dctx	-13296
grow	-13297
kers	-13298
voic	-13299
▁rad	-13300
▁tun	-13301
[2]);	-13302
astic	-13303
front	-13304
preds	-13305
utton	-13306
▁apps	-13307
▁bidi	-13308
▁lost	-13309
▁mojo	-13310
▁talk	-13311
isting	-13312
phabet	-13313
realms	-13314
remail	-13315
tomany	-13316
ystart	-13317
▁devic	-13318
▁epoll	-13319
▁stuff	-13320
chastic	-13321
getlist	-13322
migrate	-13323
topixel	-13324
▁dotest	-13325
▁onnext	-13326
gettotal	-13327
hashjoin	-13328
includes	-13329
▁gettime	-13330
▁intlist	-13331
▁scripts	-13332
▁uniform	-13333
▁allowing	-13334
▁builders	-13335
▁chatroom	-13336
▁checkfor	-13337
▁profiler	-13338
clientinfo	-13339
webrequest	-13340
▁cachename	-13341
▁getobject	-13342
▁privileges	-13343
abletreenode	-13344
fromnullable	-13345
futurestream	-13346
keyexception	-13347
▁accounttype	-13348
▁nonexistent	-13349
▁profilename	-13350
▁datasetgraph	-13351
▁pathfragment	-13352
ystemproperties	-13353
▁bufferedwriter	-13354
standardcharsets	-13355
<<	-13356
pm	-13357
21;	-13358
▁um	-13359
atet	-13360
bias	-13361
disc	-13362
erse	-13363
onot	-13364
orph	-13365
pipe	-13366
seto	-13367
topo	-13368
▁","	-13369
▁fis	-13370
▁fml	-13371
▁ssh	-13372
\"");	-13373
combo	-13374
pollo	-13375
▁flip	-13376
▁freq	-13377
▁lift	-13378
▁runt	-13379
locate	-13380
median	-13381
rolled	-13382
utiliz	-13383
varint	-13384
▁navig	-13385
deposit	-13386
estream	-13387
picture	-13388
removes	-13389
rootdir	-13390
toutput	-13391
▁approx	-13392
▁sizeof	-13393
limiters	-13394
viewname	-13395
weighted	-13396
▁ability	-13397
▁abstrac	-13398
▁heading	-13399
▁inspect	-13400
▁shardid	-13401
▁trimmed	-13402
convertto	-13403
ingleband	-13404
lelements	-13405
pagerange	-13406
reporting	-13407
setentity	-13408
▁injected	-13409
▁searched	-13410
▁treepath	-13411
bytestream	-13412
▁blacklist	-13413
▁creatersa	-13414
▁ivariable	-13415
▁programid	-13416
▁published	-13417
▁reconnect	-13418
▁suggested	-13419
▁tolerance	-13420
▁transient	-13421
authorities	-13422
asynchronous	-13423
▁initializer	-13424
▁joptionpane	-13425
▁monthsuntil	-13426
▁concurrently	-13427
getinputformat	-13428
offsetequation	-13429
▁weakreference	-13430
publicipaddress	-13431
▁messagehandler	-13432
feedbackquestion	-13433
tb	-13434
12,	-13435
ipt	-13436
),//	-13437
omic	-13438
▁jen	-13439
arity	-13440
sciss	-13441
smile	-13442
thint	-13443
usion	-13444
▁mind	-13445
▁reli	-13446
chords	-13447
ecolor	-13448
energy	-13449
joiner	-13450
ptypes	-13451
reboot	-13452
shaker	-13453
▁crawl	-13454
setblob	-13455
tagsfor	-13456
validat	-13457
▁blobid	-13458
▁poller	-13459
▁review	-13460
anymatch	-13461
getstyle	-13462
ingevent	-13463
obitrate	-13464
rendered	-13465
▁schemap	-13466
getdouble	-13467
readbytes	-13468
ssnapshot	-13469
yprovider	-13470
▁detector	-13471
▁minwidth	-13472
▁thevalue	-13473
mainthread	-13474
▁accountid	-13475
▁dedicated	-13476
▁getsystem	-13477
▁isdefault	-13478
▁nexttoken	-13479
▁onsuccess	-13480
▁thumbnail	-13481
andexecutor	-13482
mucommander	-13483
printwriter	-13484
▁forwarding	-13485
▁ringbuffer	-13486
contribution	-13487
databasename	-13488
grandparents	-13489
kaleoclasspk	-13490
▁unavailable	-13491
assertioninfo	-13492
containername	-13493
normalization	-13494
▁mavcontainer	-13495
▁numberformat	-13496
getqualifiedname	-13497
▁blobasyncclient	-13498
\",	-13499
aas	-13500
plo	-13501
roi	-13502
ski	-13503
▁cv	-13504
▁rw	-13505
▁ul	-13506
++];	-13507
5");	-13508
boun	-13509
ocab	-13510
oute	-13511
setc	-13512
▁?>)	-13513
▁cxx	-13514
▁gss	-13515
▁oos	-13516
▁sag	-13517
▁wad	-13518
fined	-13519
formy	-13520
roids	-13521
▁insn	-13522
▁migr	-13523
ecraft	-13524
frozen	-13525
setkey	-13526
splits	-13527
tabler	-13528
urnode	-13529
viewid	-13530
▁fatal	-13531
▁remot	-13532
▁tried	-13533
getrule	-13534
joining	-13535
markers	-13536
residue	-13537
setdata	-13538
▁anyway	-13539
▁refers	-13540
optimize	-13541
todelete	-13542
ublisher	-13543
velocity	-13544
▁markers	-13545
▁updater	-13546
codepoint	-13547
downloads	-13548
linkevent	-13549
▁acquired	-13550
▁japanese	-13551
▁notempty	-13552
▁pageable	-13553
▁warnings	-13554
setcurrent	-13555
▁getcustom	-13556
▁incorrect	-13557
▁reconcile	-13558
▁webdriver	-13559
attachments	-13560
blobrequest	-13561
contextpath	-13562
itemrequest	-13563
startoffset	-13564
▁indexinput	-13565
allocationid	-13566
configurable	-13567
connectionid	-13568
valueunequal	-13569
▁commonutils	-13570
▁currentuser	-13571
oauthconsumer	-13572
▁scriptobject	-13573
converterutils	-13574
▁commitrequest	-13575
▁fixedproblems	-13576
describevirtual	-13577
redshiftrequest	-13578
▁validationdata	-13579
articleexception	-13580
echapcredentials	-13581
)*	-13582
4(	-13583
20.	-13584
fft	-13585
vlc	-13586
▁je	-13587
ecan	-13588
ions	-13589
noop	-13590
ords	-13591
tran	-13592
▁iri	-13593
▁ram	-13594
▁sav	-13595
datat	-13596
ersey	-13597
sound	-13598
steal	-13599
udson	-13600
backed	-13601
ensive	-13602
facets	-13603
machin	-13604
uclide	-13605
▁endof	-13606
jobname	-13607
removet	-13608
ualsize	-13609
▁copyto	-13610
▁easier	-13611
▁getsub	-13612
▁lazily	-13613
▁shader	-13614
▁traces	-13615
▁webapp	-13616
▁wherec	-13617
apimodel	-13618
ecreated	-13619
excluded	-13620
livedocs	-13621
throttle	-13622
▁compose	-13623
▁rethrow	-13624
▁transit	-13625
getsorted	-13626
▁geterror	-13627
▁inferred	-13628
▁livedocs	-13629
▁toremove	-13630
likelihood	-13631
startmonth	-13632
▁attempted	-13633
▁blobstore	-13634
▁byteorder	-13635
▁defaulttr	-13636
▁listening	-13637
businessday	-13638
cacheconfig	-13639
statehandle	-13640
yparameters	-13641
▁createfrom	-13642
▁validators	-13643
bufferstream	-13644
datetimezone	-13645
interpolator	-13646
▁explanation	-13647
▁fileservice	-13648
▁getlocation	-13649
▁whereclause	-13650
izeconstraint	-13651
▁cancellation	-13652
▁constructors	-13653
▁createcontact	-13654
▁metadataentry	-13655
▁updategateway	-13656
contextprovider	-13657
filehttpheaders	-13658
getorganization	-13659
protocolversion	-13660
apimodelproperty	-13661
argumentresolver	-13662
clz	-13663
gov	-13664
lac	-13665
▁bq	-13666
▁fo	-13667
atur	-13668
getg	-13669
mref	-13670
▁bop	-13671
▁ctr	-13672
ahead	-13673
every	-13674
maint	-13675
▁cmss	-13676
▁goes	-13677
▁snap	-13678
bitkey	-13679
cutoff	-13680
flater	-13681
getnew	-13682
retval	-13683
toggle	-13684
▁"1");	-13685
▁camer	-13686
bserver	-13687
decoded	-13688
ecolumn	-13689
elatest	-13690
fetcher	-13691
heading	-13692
peering	-13693
reserve	-13694
setitem	-13695
snippet	-13696
updatec	-13697
▁places	-13698
classify	-13699
indexdst	-13700
▁central	-13701
▁fileurl	-13702
▁focused	-13703
▁indexer	-13704
▁outcome	-13705
▁proceed	-13706
andverify	-13707
decrement	-13708
filaments	-13709
insertion	-13710
▁controls	-13711
▁getmodel	-13712
▁inserted	-13713
▁prepares	-13714
▁severity	-13715
▁shutting	-13716
actionpath	-13717
etablename	-13718
getminimum	-13719
monitoring	-13720
netaddress	-13721
principals	-13722
sourcefile	-13723
taskassign	-13724
topologyid	-13725
▁beanclass	-13726
chronofield	-13727
randomclass	-13728
sexpression	-13729
ubdirectory	-13730
updatestate	-13731
▁settlement	-13732
andpositions	-13733
▁checkpoints	-13734
▁getactivity	-13735
▁packageinfo	-13736
▁removefirst	-13737
▁updatestate	-13738
expectmessage	-13739
jectexception	-13740
▁construction	-13741
▁insufficient	-13742
▁describestack	-13743
calendarbooking	-13744
injectionmanager	-13745
sslsocketfactory	-13746
jj	-13747
()+	-13748
abr	-13749
ori	-13750
▁('	-13751
▁4.	-13752
▁bf	-13753
()",	-13754
algo	-13755
getz	-13756
reib	-13757
retr	-13758
worl	-13759
▁10)	-13760
▁ber	-13761
▁dos	-13762
▁mob	-13763
▁tom	-13764
actly	-13765
bayes	-13766
mport	-13767
never	-13768
rowid	-13769
▁1");	-13770
▁clou	-13771
▁lose	-13772
▁rtcp	-13773
▁wake	-13774
angles	-13775
combat	-13776
friend	-13777
gettop	-13778
▁flows	-13779
▁human	-13780
▁pools	-13781
▁unset	-13782
effecti	-13783
egative	-13784
exchang	-13785
htmltag	-13786
itation	-13787
keytype	-13788
▁calend	-13789
▁madvoc	-13790
▁oldest	-13791
affected	-13792
outgoing	-13793
▁globals	-13794
▁keytype	-13795
▁prepend	-13796
▁uriinfo	-13797
▁urlpath	-13798
automaton	-13799
encodings	-13800
libraries	-13801
onsuccess	-13802
rencoding	-13803
▁ciphersu	-13804
▁examples	-13805
▁explorer	-13806
▁gettotal	-13807
antcontact	-13808
capability	-13809
isselected	-13810
▁automaton	-13811
▁permitted	-13812
▁runnables	-13813
▁viewgroup	-13814
actionevent	-13815
alternative	-13816
computation	-13817
contextname	-13818
tokenstream	-13819
▁marshaller	-13820
▁priceindex	-13821
imagerequest	-13822
interconnect	-13823
configservice	-13824
odiscoverable	-13825
▁dataprovider	-13826
▁queryrequest	-13827
getstringvalue	-13828
isjavaidentifier	-13829
▁compilationunit	-13830
▁imagesingleband	-13831
><	-13832
gz	-13833
sf	-13834
ftr	-13835
htt	-13836
jmx	-13837
orm	-13838
pie	-13839
qdr	-13840
tsk	-13841
▁';	-13842
("//	-13843
buil	-13844
dims	-13845
getw	-13846
ssrc	-13847
▁0),	-13848
▁256	-13849
1123(	-13850
genie	-13851
itemp	-13852
utral	-13853
▁")";	-13854
▁hole	-13855
▁secs	-13856
▁shif	-13857
▁tele	-13858
blobid	-13859
bullet	-13860
choice	-13861
inesis	-13862
totals	-13863
voices	-13864
▁baset	-13865
▁grayf	-13866
▁zones	-13867
findbyc	-13868
ighbour	-13869
lineage	-13870
numleft	-13871
ongoing	-13872
readall	-13873
ularend	-13874
untyped	-13875
▁choice	-13876
▁chords	-13877
▁faster	-13878
▁getdoc	-13879
▁keepmy	-13880
▁lifted	-13881
▁moving	-13882
▁rating	-13883
▁redund	-13884
▁safely	-13885
cassandr	-13886
mmanager	-13887
numright	-13888
textview	-13889
▁devfile	-13890
▁license	-13891
▁locales	-13892
▁offline	-13893
▁removet	-13894
▁setuser	-13895
chunksize	-13896
reemarker	-13897
▁actuator	-13898
▁annotate	-13899
▁checknot	-13900
▁eventbus	-13901
▁fmeasure	-13902
▁opsworks	-13903
▁weighted	-13904
floatvalue	-13905
getoutcome	-13906
getrolearn	-13907
inheritdoc	-13908
javasource	-13909
keybuilder	-13910
lowerbound	-13911
rdsrequest	-13912
▁accessing	-13913
▁basevalue	-13914
▁messageid	-13915
▁searchseq	-13916
▁typeframe	-13917
ecompliance	-13918
encountered	-13919
implemented	-13920
interleaved	-13921
peeraddress	-13922
qdrfunction	-13923
shareclient	-13924
streamcache	-13925
xsetupformy	-13926
▁copylength	-13927
▁igetandset	-13928
▁nodeengine	-13929
▁quotedargs	-13930
▁registermy	-13931
▁sourcefile	-13932
▁timeseries	-13933
premieraddon	-13934
sdkconstants	-13935
▁callerclass	-13936
▁getdocument	-13937
▁getmessages	-13938
▁heapifydown	-13939
▁lookupclass	-13940
▁numchildren	-13941
▁numnegative	-13942
▁numpositive	-13943
▁requesttype	-13944
currentoffset	-13945
myselfderived	-13946
parametername	-13947
▁bookmarkable	-13948
▁currentstate	-13949
▁myselfexists	-13950
▁quaternionfc	-13951
▁myselfinscope	-13952
ablebeanfactory	-13953
createdirectory	-13954
getandincrement	-13955
getlastmodified	-13956
▁keeperexception	-13957
▁targetinventory	-13958
3>	-13959
)];	-13960
▁qs	-13961
/");	-13962
busy	-13963
itet	-13964
▁().	-13965
▁byp	-13966
▁ios	-13967
('/',	-13968
enull	-13969
infoc	-13970
nonce	-13971
oread	-13972
setif	-13973
▁"'",	-13974
▁200,	-13975
▁abbr	-13976
▁memo	-13977
▁sock	-13978
abledb	-13979
marked	-13980
rawing	-13981
▁keeps	-13982
▁prime	-13983
availab	-13984
closest	-13985
getacti	-13986
getcell	-13987
highest	-13988
imgplus	-13989
laylist	-13990
learner	-13991
privacy	-13992
stackid	-13993
ulation	-13994
▁ambari	-13995
▁tolist	-13996
flashmap	-13997
inactive	-13998
jsonnode	-13999
skipping	-14000
subclass	-14001
unicator	-14002
▁barrier	-14003
▁exposed	-14004
▁garbage	-14005
▁longest	-14006
▁nearest	-14007
▁onclick	-14008
▁readers	-14009
▁striped	-14010
cachetype	-14011
getthread	-14012
paramname	-14013
reachable	-14014
redential	-14015
▁canceled	-14016
▁getgroup	-14017
activation	-14018
blockstate	-14019
columntype	-14020
dependents	-14021
periodrule	-14022
tokentypes	-14023
▁levelnode	-14024
▁libraries	-14025
▁lowercase	-14026
boundingbox	-14027
evaluations	-14028
getprovider	-14029
incremental	-14030
objectstore	-14031
▁propagated	-14032
▁restclient	-14033
binarysearch	-14034
outputbuffer	-14035
▁interaction	-14036
jsonexception	-14037
▁allocationid	-14038
classifiername	-14039
getcolumnindex	-14040
parametercount	-14041
▁parseposition	-14042
▁createresource	-14043
calendarresource	-14044
keyschemaelement	-14045
▁findercacheutil	-14046
mv	-14047
awt	-14048
oss	-14049
▁ae	-14050
▁ci	-14051
▁ho	-14052
▁pg	-14053
("1.	-14054
(-1,	-14055
exml	-14056
hops	-14057
oftw	-14058
scmd	-14059
▁10,	-14060
▁neo	-14061
▁nio	-14062
newdt	-14063
remot	-14064
slots	-14065
strix	-14066
trash	-14067
arrive	-14068
georeg	-14069
produc	-14070
verule	-14071
▁alive	-14072
▁atype	-14073
▁sexpr	-14074
callers	-14075
etector	-14076
ickname	-14077
minimal	-14078
nextobj	-14079
pective	-14080
phoenix	-14081
putlong	-14082
standby	-14083
webview	-14084
▁differ	-14085
▁issame	-14086
▁tested	-14087
▁wizard	-14088
building	-14089
favorite	-14090
getworld	-14091
getwrite	-14092
notifier	-14093
otherobj	-14094
sipaddrs	-14095
ucceeded	-14096
▁marshal	-14097
▁tableid	-14098
intersect	-14099
multirole	-14100
recording	-14101
sclusters	-14102
timeoutms	-14103
toradians	-14104
▁docsenum	-14105
▁setdebug	-14106
▁targetid	-14107
outputfile	-14108
psibuilder	-14109
▁channelid	-14110
▁downwards	-14111
▁interrupt	-14112
▁remainder	-14113
byresources	-14114
cmsresource	-14115
containerid	-14116
dataactions	-14117
keydeletion	-14118
setposition	-14119
▁configfile	-14120
▁correspond	-14121
▁modulepath	-14122
▁resourceid	-14123
▁searchstrs	-14124
▁sequential	-14125
▁servername	-14126
▁structures	-14127
currententry	-14128
getdatapoint	-14129
introspector	-14130
languagecode	-14131
searchresult	-14132
shardrouting	-14133
▁beanfactory	-14134
▁significant	-14135
▁connectpoint	-14136
▁functionname	-14137
▁precondition	-14138
▁provisioning	-14139
▁responsetype	-14140
▁getannotation	-14141
functionrequest	-14142
alg	-14143
fmt	-14144
foc	-14145
htm	-14146
kms	-14147
oct	-14148
tsn	-14149
▁11	-14150
▁zz	-14151
anel	-14152
moun	-14153
poly	-14154
▁sip	-14155
▁sky	-14156
comma	-14157
journ	-14158
stext	-14159
timet	-14160
uffix	-14161
▁chan	-14162
▁dash	-14163
enrich	-14164
graphs	-14165
letext	-14166
titles	-14167
▁2010)	-14168
▁besch	-14169
▁drill	-14170
▁exprs	-14171
▁minor	-14172
▁mtree	-14173
etition	-14174
forpath	-14175
reibung	-14176
shuffle	-14177
statuse	-14178
▁getint	-14179
▁roster	-14180
▁speech	-14181
▁stdout	-14182
disposed	-14183
explorer	-14184
notional	-14185
plannode	-14186
plusdays	-14187
projects	-14188
recycler	-14189
withtype	-14190
▁decrypt	-14191
▁jackson	-14192
▁queried	-14193
listentry	-14194
textfield	-14195
webdriver	-14196
ymbolname	-14197
▁exponent	-14198
▁stopping	-14199
findmodule	-14200
parcelable	-14201
▁neighbors	-14202
▁truncated	-14203
restriction	-14204
testcontext	-14205
▁arithmetic	-14206
▁bytestring	-14207
▁convenient	-14208
▁filewriter	-14209
▁jobrequest	-14210
▁randomutil	-14211
[...]
